{
    "version": "1.0",
    "truncation": null,
    "padding": null,
    "added_tokens": [
        {
            "id": 0,
            "content": "[UNK]",
            "single_word": false,
            "lstrip": false,
            "rstrip": false,
            "normalized": false,
            "special": true
        },
        {
            "id": 1,
            "content": "[CLS]",
            "single_word": false,
            "lstrip": false,
            "rstrip": false,
            "normalized": false,
            "special": true
        },
        {
            "id": 2,
            "content": "[SEP]",
            "single_word": false,
            "lstrip": false,
            "rstrip": false,
            "normalized": false,
            "special": true
        },
        {
            "id": 3,
            "content": "[PAD]",
            "single_word": false,
            "lstrip": false,
            "rstrip": false,
            "normalized": false,
            "special": true
        },
        {
            "id": 4,
            "content": "[MASK]",
            "single_word": false,
            "lstrip": false,
            "rstrip": false,
            "normalized": false,
            "special": true
        }
    ],
    "normalizer": null,
    "pre_tokenizer": {
        "type": "Whitespace"
    },
    "post_processor": null,
    "decoder": null,
    "model": {
        "type": "BPE",
        "dropout": null,
        "unk_token": "[UNK]",
        "continuing_subword_prefix": null,
        "end_of_word_suffix": null,
        "fuse_unk": false,
        "byte_fallback": false,
        "ignore_merges": false,
        "vocab": {
            "[UNK]": 0,
            "[CLS]": 1,
            "[SEP]": 2,
            "[PAD]": 3,
            "[MASK]": 4,
            "!": 5,
            "\"": 6,
            "#": 7,
            "$": 8,
            "%": 9,
            "&": 10,
            "'": 11,
            "(": 12,
            ")": 13,
            "*": 14,
            "+": 15,
            ",": 16,
            "-": 17,
            ".": 18,
            "/": 19,
            "0": 20,
            "1": 21,
            "2": 22,
            "3": 23,
            "4": 24,
            "5": 25,
            "6": 26,
            "7": 27,
            "8": 28,
            "9": 29,
            ":": 30,
            ";": 31,
            "<": 32,
            "=": 33,
            ">": 34,
            "?": 35,
            "@": 36,
            "A": 37,
            "B": 38,
            "C": 39,
            "D": 40,
            "E": 41,
            "F": 42,
            "G": 43,
            "H": 44,
            "I": 45,
            "J": 46,
            "K": 47,
            "L": 48,
            "M": 49,
            "N": 50,
            "O": 51,
            "P": 52,
            "Q": 53,
            "R": 54,
            "S": 55,
            "T": 56,
            "U": 57,
            "V": 58,
            "W": 59,
            "X": 60,
            "Y": 61,
            "Z": 62,
            "[": 63,
            "\\": 64,
            "]": 65,
            "^": 66,
            "`": 67,
            "a": 68,
            "b": 69,
            "c": 70,
            "d": 71,
            "e": 72,
            "f": 73,
            "g": 74,
            "h": 75,
            "i": 76,
            "j": 77,
            "k": 78,
            "l": 79,
            "m": 80,
            "n": 81,
            "o": 82,
            "p": 83,
            "q": 84,
            "r": 85,
            "s": 86,
            "t": 87,
            "u": 88,
            "v": 89,
            "w": 90,
            "x": 91,
            "y": 92,
            "z": 93,
            "|": 94,
            "~": 95,
            "¡": 96,
            "£": 97,
            "¥": 98,
            "§": 99,
            "°": 100,
            "±": 101,
            "²": 102,
            "³": 103,
            "µ": 104,
            "·": 105,
            "½": 106,
            "Á": 107,
            "Å": 108,
            "Æ": 109,
            "É": 110,
            "Í": 111,
            "Î": 112,
            "Ö": 113,
            "×": 114,
            "Ø": 115,
            "Ú": 116,
            "Ü": 117,
            "Þ": 118,
            "à": 119,
            "á": 120,
            "â": 121,
            "ã": 122,
            "ä": 123,
            "å": 124,
            "ç": 125,
            "è": 126,
            "é": 127,
            "ê": 128,
            "ë": 129,
            "ì": 130,
            "í": 131,
            "î": 132,
            "ñ": 133,
            "ò": 134,
            "ó": 135,
            "ô": 136,
            "ö": 137,
            "ø": 138,
            "ú": 139,
            "û": 140,
            "ü": 141,
            "Ā": 142,
            "ā": 143,
            "ă": 144,
            "ć": 145,
            "č": 146,
            "Đ": 147,
            "đ": 148,
            "ė": 149,
            "ī": 150,
            "Ł": 151,
            "ł": 152,
            "ń": 153,
            "Ō": 154,
            "ō": 155,
            "ś": 156,
            "ş": 157,
            "š": 158,
            "ū": 159,
            "ų": 160,
            "Ż": 161,
            "ž": 162,
            "ơ": 163,
            "ư": 164,
            "ʻ": 165,
            "ʿ": 166,
            "̃": 167,
            "α": 168,
            "β": 169,
            "γ": 170,
            "κ": 171,
            "μ": 172,
            "С": 173,
            "а": 174,
            "в": 175,
            "е": 176,
            "к": 177,
            "о": 178,
            "с": 179,
            "т": 180,
            "я": 181,
            "ا": 182,
            "ح": 183,
            "ص": 184,
            "ل": 185,
            "ن": 186,
            "ه": 187,
            "्": 188,
            "ก": 189,
            "ง": 190,
            "ณ": 191,
            "ต": 192,
            "ม": 193,
            "ย": 194,
            "ร": 195,
            "ล": 196,
            "ั": 197,
            "า": 198,
            "ิ": 199,
            "่": 200,
            "์": 201,
            "გ": 202,
            "დ": 203,
            "ვ": 204,
            "ზ": 205,
            "ი": 206,
            "კ": 207,
            "ო": 208,
            "რ": 209,
            "ს": 210,
            "უ": 211,
            "ც": 212,
            "ძ": 213,
            "წ": 214,
            "ხ": 215,
            "ჯ": 216,
            "჻": 217,
            "ḥ": 218,
            "ṃ": 219,
            "ṅ": 220,
            "ṣ": 221,
            "ṭ": 222,
            "ṯ": 223,
            "ả": 224,
            "ấ": 225,
            "ầ": 226,
            "ắ": 227,
            "ễ": 228,
            "ệ": 229,
            "ị": 230,
            "ớ": 231,
            "ử": 232,
            "ỳ": 233,
            "‑": 234,
            "–": 235,
            "—": 236,
            "‘": 237,
            "’": 238,
            "“": 239,
            "”": 240,
            "„": 241,
            "†": 242,
            "…": 243,
            "′": 244,
            "″": 245,
            "⁄": 246,
            "₤": 247,
            "€": 248,
            "₹": 249,
            "⅓": 250,
            "⅔": 251,
            "→": 252,
            "−": 253,
            "≤": 254,
            "☉": 255,
            "♭": 256,
            "♯": 257,
            "〈": 258,
            "〉": 259,
            "の": 260,
            "ァ": 261,
            "ア": 262,
            "キ": 263,
            "ス": 264,
            "ッ": 265,
            "ト": 266,
            "プ": 267,
            "ュ": 268,
            "リ": 269,
            "ル": 270,
            "ヴ": 271,
            "・": 272,
            "動": 273,
            "場": 274,
            "大": 275,
            "戦": 276,
            "攻": 277,
            "機": 278,
            "殻": 279,
            "火": 280,
            "礮": 281,
            "空": 282,
            "隊": 283,
            "﻿": 284,
            "～": 285,
            "th": 286,
            "in": 287,
            "the": 288,
            "an": 289,
            "er": 290,
            "on": 291,
            "ed": 292,
            "un": 293,
            "re": 294,
            "at": 295,
            "or": 296,
            "en": 297,
            "st": 298,
            "al": 299,
            "ar": 300,
            "of": 301,
            "and": 302,
            "unk": 303,
            "as": 304,
            "to": 305,
            "is": 306,
            "es": 307,
            "ing": 308,
            "it": 309,
            "ic": 310,
            "ro": 311,
            "ion": 312,
            "he": 313,
            "le": 314,
            "ou": 315,
            "\"\"": 316,
            "ac": 317,
            "ent": 318,
            "il": 319,
            "se": 320,
            "ad": 321,
            "am": 322,
            "om": 323,
            "be": 324,
            "ly": 325,
            "was": 326,
            "for": 327,
            "ch": 328,
            "ur": 329,
            "ve": 330,
            "de": 331,
            "The": 332,
            "ir": 333,
            "ol": 334,
            "-@": 335,
            "@-@": 336,
            "im": 337,
            "wh": 338,
            "ver": 339,
            "ig": 340,
            "ow": 341,
            "wi": 342,
            "ter": 343,
            "ay": 344,
            "ce": 345,
            "con": 346,
            "that": 347,
            "with": 348,
            "ation": 349,
            "ct": 350,
            "by": 351,
            "ag": 352,
            "te": 353,
            "id": 354,
            "us": 355,
            "ot": 356,
            "ri": 357,
            "ul": 358,
            "19": 359,
            "el": 360,
            "ap": 361,
            "ere": 362,
            "res": 363,
            "ain": 364,
            "rom": 365,
            "com": 366,
            "op": 367,
            "pl": 368,
            "et": 369,
            "00": 370,
            "ut": 371,
            "his": 372,
            "mo": 373,
            "su": 374,
            "all": 375,
            "ers": 376,
            "ab": 377,
            "are": 378,
            "from": 379,
            "ther": 380,
            "li": 381,
            "um": 382,
            "pro": 383,
            "pe": 384,
            "di": 385,
            "In": 386,
            "und": 387,
            "ne": 388,
            "sh": 389,
            "cl": 390,
            "ate": 391,
            "art": 392,
            "tr": 393,
            "po": 394,
            "were": 395,
            "em": 396,
            "igh": 397,
            "ong": 398,
            "so": 399,
            "si": 400,
            "ich": 401,
            "est": 402,
            "ex": 403,
            "ld": 404,
            "ies": 405,
            "ill": 406,
            "ast": 407,
            "ak": 408,
            "lo": 409,
            "ber": 410,
            "gh": 411,
            "ish": 412,
            "ard": 413,
            "ame": 414,
            "ort": 415,
            "ity": 416,
            "ated": 417,
            "co": 418,
            "ment": 419,
            "per": 420,
            "man": 421,
            "od": 422,
            "fe": 423,
            "ant": 424,
            "had": 425,
            "ist": 426,
            "out": 427,
            "ack": 428,
            "qu": 429,
            "ear": 430,
            "tw": 431,
            "one": 432,
            "vi": 433,
            "end": 434,
            "which": 435,
            "ess": 436,
            "our": 437,
            "str": 438,
            "ord": 439,
            "ge": 440,
            "not": 441,
            "af": 442,
            "up": 443,
            "ave": 444,
            "but": 445,
            "rit": 446,
            "ive": 447,
            "fo": 448,
            "its": 449,
            "ine": 450,
            "ally": 451,
            "act": 452,
            "av": 453,
            "ci": 454,
            "Ch": 455,
            "ight": 456,
            "ary": 457,
            "fir": 458,
            "200": 459,
            "ud": 460,
            "own": 461,
            "her": 462,
            "ian": 463,
            "du": 464,
            "ved": 465,
            "over": 466,
            "20": 467,
            "bo": 468,
            "pr": 469,
            "port": 470,
            "St": 471,
            "their": 472,
            "ew": 473,
            "ip": 474,
            "land": 475,
            "ep": 476,
            "ould": 477,
            "first": 478,
            "ous": 479,
            "fic": 480,
            "ach": 481,
            "unt": 482,
            "ser": 483,
            "age": 484,
            "other": 485,
            "low": 486,
            "wor": 487,
            "ical": 488,
            "also": 489,
            "ition": 490,
            "tim": 491,
            "ction": 492,
            "ass": 493,
            "att": 494,
            "has": 495,
            "form": 496,
            "au": 497,
            "ign": 498,
            "aw": 499,
            "ater": 500,
            "ub": 501,
            "pt": 502,
            "comp": 503,
            "ure": 504,
            "ll": 505,
            "ev": 506,
            "have": 507,
            "play": 508,
            "ia": 509,
            "int": 510,
            "who": 511,
            "18": 512,
            "ke": 513,
            "He": 514,
            "been": 515,
            "part": 516,
            "two": 517,
            "pos": 518,
            "cre": 519,
            "iv": 520,
            "ome": 521,
            "cont": 522,
            "uring": 523,
            "sp": 524,
            "ence": 525,
            "gr": 526,
            "ree": 527,
            "no": 528,
            ".@": 529,
            "@.@": 530,
            "gu": 531,
            "ough": 532,
            "cent": 533,
            "this": 534,
            "ok": 535,
            "ran": 536,
            "pres": 537,
            "ile": 538,
            "It": 539,
            "des": 540,
            "they": 541,
            "ory": 542,
            "comm": 543,
            "year": 544,
            "oc": 545,
            "after": 546,
            "me": 547,
            "ade": 548,
            "201": 549,
            "fin": 550,
            "ult": 551,
            "Th": 552,
            "rou": 553,
            "incl": 554,
            "ite": 555,
            "dis": 556,
            ",@": 557,
            "@,@": 558,
            "ans": 559,
            "pre": 560,
            "fi": 561,
            "fer": 562,
            "cord": 563,
            "we": 564,
            "ren": 565,
            "An": 566,
            "ell": 567,
            "work": 568,
            "ace": 569,
            "urn": 570,
            "ever": 571,
            "ations": 572,
            "ue": 573,
            "into": 574,
            "mer": 575,
            "time": 576,
            "ces": 577,
            "sc": 578,
            "rough": 579,
            "ial": 580,
            "ric": 581,
            "Un": 582,
            "ra": 583,
            "ark": 584,
            "sion": 585,
            "more": 586,
            "tem": 587,
            "ance": 588,
            "ced": 589,
            "vel": 590,
            "Au": 591,
            "ship": 592,
            "able": 593,
            "any": 594,
            "most": 595,
            "spe": 596,
            "would": 597,
            "gro": 598,
            "os": 599,
            "air": 600,
            "main": 601,
            "him": 602,
            "inter": 603,
            "she": 604,
            "old": 605,
            "used": 606,
            "cond": 607,
            "ited": 608,
            "amp": 609,
            "red": 610,
            "cted": 611,
            "includ": 612,
            "br": 613,
            "ason": 614,
            "ice": 615,
            "ased": 616,
            "bec": 617,
            "fore": 618,
            "Al": 619,
            "way": 620,
            "though": 621,
            "mon": 622,
            "ern": 623,
            "ck": 624,
            "gan": 625,
            "fl": 626,
            "song": 627,
            "min": 628,
            "ten": 629,
            "new": 630,
            "ings": 631,
            "ates": 632,
            "ail": 633,
            "under": 634,
            "during": 635,
            "only": 636,
            "ubl": 637,
            "ath": 638,
            "when": 639,
            "ild": 640,
            "ake": 641,
            "ef": 642,
            "iz": 643,
            "ase": 644,
            "vis": 645,
            "ict": 646,
            "bu": 647,
            "ph": 648,
            "Ro": 649,
            "them": 650,
            "ents": 651,
            "nor": 652,
            "outh": 653,
            "ilm": 654,
            "reg": 655,
            "ret": 656,
            "arch": 657,
            "ions": 658,
            "een": 659,
            "col": 660,
            "ollow": 661,
            "again": 662,
            "als": 663,
            "cess": 664,
            "go": 665,
            "ward": 666,
            "199": 667,
            "game": 668,
            "ind": 669,
            "les": 670,
            "day": 671,
            "about": 672,
            "son": 673,
            "Ar": 674,
            "while": 675,
            "ry": 676,
            "ang": 677,
            "some": 678,
            "three": 679,
            "og": 680,
            "sing": 681,
            "lar": 682,
            "kn": 683,
            "than": 684,
            "stru": 685,
            "En": 686,
            "can": 687,
            "betw": 688,
            "between": 689,
            "season": 690,
            "ble": 691,
            "where": 692,
            "On": 693,
            "ie": 694,
            "led": 695,
            "sy": 696,
            "writ": 697,
            "ors": 698,
            "ational": 699,
            "num": 700,
            "set": 701,
            "cr": 702,
            "through": 703,
            "gen": 704,
            "ob": 705,
            "if": 706,
            "char": 707,
            "iver": 708,
            "Re": 709,
            "ted": 710,
            "film": 711,
            "Jo": 712,
            "record": 713,
            "later": 714,
            "Af": 715,
            "dr": 716,
            "produ": 717,
            "Com": 718,
            "Wh": 719,
            "New": 720,
            "ular": 721,
            "ick": 722,
            "rele": 723,
            "view": 724,
            "ful": 725,
            "Amer": 726,
            "Americ": 727,
            "ann": 728,
            "ered": 729,
            "ron": 730,
            "made": 731,
            "ames": 732,
            "mi": 733,
            "As": 734,
            "then": 735,
            "10": 736,
            "ury": 737,
            "ished": 738,
            "ty": 739,
            "aid": 740,
            "ss": 741,
            "follow": 742,
            "rel": 743,
            "high": 744,
            "000": 745,
            "my": 746,
            "ele": 747,
            "ust": 748,
            "call": 749,
            "do": 750,
            "sub": 751,
            "off": 752,
            "ating": 753,
            "ire": 754,
            "ts": 755,
            "four": 756,
            "appe": 757,
            "med": 758,
            "second": 759,
            "row": 760,
            "sel": 761,
            "cap": 762,
            "well": 763,
            "urch": 764,
            "publ": 765,
            "cur": 766,
            "ose": 767,
            "bum": 768,
            "such": 769,
            "ton": 770,
            "sur": 771,
            "before": 772,
            "This": 773,
            "..": 774,
            "At": 775,
            "back": 776,
            "being": 777,
            "Le": 778,
            "ven": 779,
            "sup": 780,
            "loc": 781,
            "No": 782,
            "cri": 783,
            "ual": 784,
            "ters": 785,
            "ma": 786,
            "there": 787,
            "many": 788,
            "years": 789,
            "ari": 790,
            "ily": 791,
            "mus": 792,
            "je": 793,
            "arri": 794,
            "16": 795,
            "Co": 796,
            "owever": 797,
            "rop": 798,
            "12": 799,
            "album": 800,
            "side": 801,
            "appear": 802,
            "De": 803,
            "number": 804,
            "ese": 805,
            "ning": 806,
            "ative": 807,
            "Brit": 808,
            "Mo": 809,
            "found": 810,
            "mber": 811,
            "ics": 812,
            "Eng": 813,
            "Nor": 814,
            "ound": 815,
            "against": 816,
            "hel": 817,
            "igin": 818,
            "add": 819,
            "reat": 820,
            "long": 821,
            "use": 822,
            "series": 823,
            "sever": 824,
            "17": 825,
            "ince": 826,
            "like": 827,
            "velop": 828,
            "ause": 829,
            "including": 830,
            "point": 831,
            "uary": 832,
            "der": 833,
            "epis": 834,
            "par": 835,
            "both": 836,
            "15": 837,
            "atch": 838,
            "oy": 839,
            "198": 840,
            "cho": 841,
            "feat": 842,
            "pop": 843,
            "down": 844,
            "dire": 845,
            "ities": 846,
            "ird": 847,
            "became": 848,
            "ft": 849,
            "ane": 850,
            "line": 851,
            "team": 852,
            "known": 853,
            "ale": 854,
            "stral": 855,
            "rece": 856,
            "ho": 857,
            "ident": 858,
            "United": 859,
            "eld": 860,
            "cover": 861,
            "charac": 862,
            "eng": 863,
            "ins": 864,
            "Austral": 865,
            "hn": 866,
            "origin": 867,
            "ments": 868,
            "contin": 869,
            "ond": 870,
            "dif": 871,
            "cons": 872,
            "tain": 873,
            "II": 874,
            "ek": 875,
            "west": 876,
            "offic": 877,
            "ode": 878,
            "descri": 879,
            "After": 880,
            "mem": 881,
            "ens": 882,
            "30": 883,
            "century": 884,
            "show": 885,
            "cer": 886,
            "oper": 887,
            "suc": 888,
            "lead": 889,
            "several": 890,
            "develop": 891,
            "cial": 892,
            "ped": 893,
            "ise": 894,
            "pol": 895,
            "mill": 896,
            "war": 897,
            "comple": 898,
            "peri": 899,
            "John": 900,
            "road": 901,
            "lack": 902,
            "trans": 903,
            "197": 904,
            "194": 905,
            "eral": 906,
            "Br": 907,
            "ures": 908,
            "began": 909,
            "uch": 910,
            "called": 911,
            "196": 912,
            "bed": 913,
            "serv": 914,
            "hist": 915,
            "Sh": 916,
            "sign": 917,
            "rest": 918,
            "along": 919,
            "ised": 920,
            "city": 921,
            "star": 922,
            "dec": 923,
            "olog": 924,
            "did": 925,
            "run": 926,
            "une": 927,
            "ung": 928,
            "remain": 929,
            "ide": 930,
            "try": 931,
            "episode": 932,
            "may": 933,
            "early": 934,
            "sm": 935,
            "ific": 936,
            "Con": 937,
            "near": 938,
            "ple": 939,
            "head": 940,
            "May": 941,
            "She": 942,
            "cle": 943,
            "could": 944,
            "ually": 945,
            "Ger": 946,
            "American": 947,
            "ball": 948,
            "ended": 949,
            "British": 950,
            "crit": 951,
            "Be": 952,
            "mil": 953,
            "orm": 954,
            "present": 955,
            "said": 956,
            "large": 957,
            "lan": 958,
            "Mar": 959,
            "ject": 960,
            "cept": 961,
            "self": 962,
            "nam": 963,
            "sist": 964,
            "Wor": 965,
            "position": 966,
            "ople": 967,
            "open": 968,
            "vid": 969,
            "ste": 970,
            "erson": 971,
            "these": 972,
            "gust": 973,
            "War": 974,
            "leg": 975,
            "until": 976,
            "pass": 977,
            "state": 978,
            "thern": 979,
            "dam": 980,
            "aking": 981,
            "por": 982,
            "tow": 983,
            "ines": 984,
            "sive": 985,
            "inv": 986,
            "stem": 987,
            "overn": 988,
            "Se": 989,
            "ith": 990,
            "start": 991,
            "Is": 992,
            "now": 993,
            "tri": 994,
            "50": 995,
            "spec": 996,
            "return": 997,
            "attack": 998,
            "success": 999,
            "ves": 1000,
            "area": 1001,
            "design": 1002,
            "met": 1003,
            "km": 1004,
            "dep": 1005,
            "ived": 1006,
            "plac": 1007,
            "music": 1008,
            "la": 1009,
            "released": 1010,
            "jor": 1011,
            "ood": 1012,
            "fam": 1013,
            "east": 1014,
            "xt": 1015,
            "Sep": 1016,
            "same": 1017,
            "ley": 1018,
            "ress": 1019,
            "US": 1020,
            "August": 1021,
            "mis": 1022,
            "gest": 1023,
            "Car": 1024,
            "around": 1025,
            "They": 1026,
            "14": 1027,
            "val": 1028,
            "north": 1029,
            "gy": 1030,
            "vide": 1031,
            "formed": 1032,
            "ross": 1033,
            "because": 1034,
            "support": 1035,
            "continu": 1036,
            "orn": 1037,
            "ru": 1038,
            "car": 1039,
            "cy": 1040,
            "13": 1041,
            "each": 1042,
            "tember": 1043,
            "September": 1044,
            "ather": 1045,
            "national": 1046,
            "million": 1047,
            "ore": 1048,
            "ca": 1049,
            "come": 1050,
            "people": 1051,
            "coun": 1052,
            "ving": 1053,
            "six": 1054,
            "Ju": 1055,
            "chool": 1056,
            "ower": 1057,
            "sim": 1058,
            "fect": 1059,
            "For": 1060,
            "group": 1061,
            "ink": 1062,
            "read": 1063,
            "rist": 1064,
            "men": 1065,
            "ash": 1066,
            "ms": 1067,
            "Bo": 1068,
            "life": 1069,
            "small": 1070,
            "ured": 1071,
            "hy": 1072,
            "However": 1073,
            "ground": 1074,
            "field": 1075,
            "following": 1076,
            "light": 1077,
            "ision": 1078,
            "grap": 1079,
            "itt": 1080,
            "ized": 1081,
            "Fe": 1082,
            "list": 1083,
            "def": 1084,
            "Col": 1085,
            "rote": 1086,
            "ouse": 1087,
            "bers": 1088,
            "contro": 1089,
            "World": 1090,
            "character": 1091,
            "io": 1092,
            "overnment": 1093,
            "az": 1094,
            "enn": 1095,
            "consid": 1096,
            "tal": 1097,
            "result": 1098,
            "report": 1099,
            "five": 1100,
            "prote": 1101,
            "June": 1102,
            "aim": 1103,
            "cour": 1104,
            "mark": 1105,
            "North": 1106,
            "very": 1107,
            "sou": 1108,
            "late": 1109,
            "played": 1110,
            "batt": 1111,
            "get": 1112,
            "ib": 1113,
            "ivers": 1114,
            "sol": 1115,
            "south": 1116,
            "let": 1117,
            "Eu": 1118,
            "requ": 1119,
            "South": 1120,
            "took": 1121,
            "dist": 1122,
            "less": 1123,
            "win": 1124,
            "dom": 1125,
            "cording": 1126,
            "book": 1127,
            "top": 1128,
            "ank": 1129,
            "what": 1130,
            "will": 1131,
            "track": 1132,
            "States": 1133,
            "gun": 1134,
            "pon": 1135,
            "aving": 1136,
            "lish": 1137,
            "count": 1138,
            "vision": 1139,
            "prom": 1140,
            "stand": 1141,
            "kill": 1142,
            "build": 1143,
            "last": 1144,
            "tit": 1145,
            "reach": 1146,
            "ural": 1147,
            "ious": 1148,
            "final": 1149,
            "11": 1150,
            "ask": 1151,
            "public": 1152,
            "ales": 1153,
            "place": 1154,
            "ody": 1155,
            "since": 1156,
            "ired": 1157,
            "week": 1158,
            "0s": 1159,
            "received": 1160,
            "ied": 1161,
            "Jan": 1162,
            "Oc": 1163,
            "vari": 1164,
            "ined": 1165,
            "ilt": 1166,
            "ctor": 1167,
            "aged": 1168,
            "major": 1169,
            "ague": 1170,
            "name": 1171,
            "allow": 1172,
            "wards": 1173,
            "atter": 1174,
            "adv": 1175,
            "ately": 1176,
            "Wil": 1177,
            "soci": 1178,
            "system": 1179,
            "che": 1180,
            "cut": 1181,
            "just": 1182,
            "fied": 1183,
            "organ": 1184,
            "care": 1185,
            "sequ": 1186,
            "ime": 1187,
            "ained": 1188,
            "even": 1189,
            "Fran": 1190,
            "cast": 1191,
            "partic": 1192,
            "ored": 1193,
            "ains": 1194,
            "Ac": 1195,
            "won": 1196,
            "appro": 1197,
            "25": 1198,
            "tober": 1199,
            "October": 1200,
            "constru": 1201,
            "Her": 1202,
            "Man": 1203,
            "town": 1204,
            "ris": 1205,
            "July": 1206,
            "moved": 1207,
            "giv": 1208,
            "mb": 1209,
            "ock": 1210,
            "species": 1211,
            "described": 1212,
            "King": 1213,
            "band": 1214,
            "Christ": 1215,
            "German": 1216,
            "child": 1217,
            "vious": 1218,
            "Gu": 1219,
            "ages": 1220,
            "liam": 1221,
            "incre": 1222,
            "ional": 1223,
            "oman": 1224,
            "ork": 1225,
            "ina": 1226,
            "order": 1227,
            "ude": 1228,
            "included": 1229,
            "due": 1230,
            "named": 1231,
            "ards": 1232,
            "Pl": 1233,
            "During": 1234,
            "tempt": 1235,
            "camp": 1236,
            "York": 1237,
            "world": 1238,
            "Me": 1239,
            "gre": 1240,
            "built": 1241,
            "Apr": 1242,
            "Can": 1243,
            "wrote": 1244,
            "April": 1245,
            "Cl": 1246,
            "fur": 1247,
            "much": 1248,
            "pen": 1249,
            "ony": 1250,
            "January": 1251,
            "lie": 1252,
            "event": 1253,
            "posed": 1254,
            "single": 1255,
            "gin": 1256,
            "government": 1257,
            "pri": 1258,
            "another": 1259,
            "person": 1260,
            "195": 1261,
            "ists": 1262,
            "ropical": 1263,
            "Gr": 1264,
            "attempt": 1265,
            "aft": 1266,
            "Australian": 1267,
            "...": 1268,
            "ling": 1269,
            "match": 1270,
            "bre": 1271,
            "differ": 1272,
            "based": 1273,
            "ility": 1274,
            "power": 1275,
            "Euro": 1276,
            "ham": 1277,
            "West": 1278,
            "although": 1279,
            "short": 1280,
            "water": 1281,
            "udi": 1282,
            "ets": 1283,
            "sed": 1284,
            "version": 1285,
            "right": 1286,
            "sent": 1287,
            "round": 1288,
            "claim": 1289,
            "ery": 1290,
            "ships": 1291,
            "hal": 1292,
            "ute": 1293,
            "left": 1294,
            "death": 1295,
            "ement": 1296,
            "March": 1297,
            "cas": 1298,
            "turn": 1299,
            "vember": 1300,
            "avy": 1301,
            "November": 1302,
            "hand": 1303,
            "ature": 1304,
            "storm": 1305,
            "ston": 1306,
            "within": 1307,
            "estab": 1308,
            "ital": 1309,
            "ants": 1310,
            "cember": 1311,
            "December": 1312,
            "home": 1313,
            "akes": 1314,
            "England": 1315,
            "command": 1316,
            "ah": 1317,
            "third": 1318,
            "forman": 1319,
            "roy": 1320,
            "gener": 1321,
            "itary": 1322,
            "review": 1323,
            "previous": 1324,
            "Mon": 1325,
            "Indi": 1326,
            "193": 1327,
            "chan": 1328,
            "All": 1329,
            "family": 1330,
            "River": 1331,
            "king": 1332,
            "school": 1333,
            "ats": 1334,
            "ulation": 1335,
            "Europe": 1336,
            "By": 1337,
            "games": 1338,
            "issu": 1339,
            "pect": 1340,
            "fall": 1341,
            "stud": 1342,
            "jo": 1343,
            "dest": 1344,
            "make": 1345,
            "City": 1346,
            "ys": 1347,
            "expl": 1348,
            "action": 1349,
            "Par": 1350,
            "ting": 1351,
            "period": 1352,
            "Ste": 1353,
            "There": 1354,
            "Jap": 1355,
            "Japan": 1356,
            "original": 1357,
            "vent": 1358,
            "best": 1359,
            "using": 1360,
            "idge": 1361,
            "hum": 1362,
            "video": 1363,
            "Church": 1364,
            "those": 1365,
            "story": 1366,
            "National": 1367,
            "ially": 1368,
            "month": 1369,
            "thing": 1370,
            "His": 1371,
            "Sc": 1372,
            "ilar": 1373,
            "company": 1374,
            "role": 1375,
            "ove": 1376,
            "ster": 1377,
            "Ge": 1378,
            "ism": 1379,
            "When": 1380,
            "performan": 1381,
            "2010": 1382,
            "ls": 1383,
            "ense": 1384,
            "ext": 1385,
            "ral": 1386,
            "ently": 1387,
            "And": 1388,
            "2008": 1389,
            "rown": 1390,
            "ref": 1391,
            "arm": 1392,
            "continued": 1393,
            "tro": 1394,
            "ons": 1395,
            "2009": 1396,
            "auth": 1397,
            "rench": 1398,
            "former": 1399,
            "iversity": 1400,
            "fac": 1401,
            "real": 1402,
            "urric": 1403,
            "ety": 1404,
            "ner": 1405,
            "move": 1406,
            "Batt": 1407,
            "We": 1408,
            "26": 1409,
            "colle": 1410,
            "site": 1411,
            "still": 1412,
            "gram": 1413,
            "24": 1414,
            "came": 1415,
            "ivision": 1416,
            "flu": 1417,
            "Gen": 1418,
            "cor": 1419,
            "bro": 1420,
            "local": 1421,
            "stit": 1422,
            "ences": 1423,
            "ush": 1424,
            "next": 1425,
            "oung": 1426,
            "held": 1427,
            "sug": 1428,
            "half": 1429,
            "Sp": 1430,
            "So": 1431,
            "often": 1432,
            "force": 1433,
            "possi": 1434,
            "placed": 1435,
            "fact": 1436,
            "forces": 1437,
            "addition": 1438,
            "ically": 1439,
            "ched": 1440,
            "aken": 1441,
            "fort": 1442,
            "club": 1443,
            "trad": 1444,
            "class": 1445,
            "history": 1446,
            "23": 1447,
            "player": 1448,
            "draw": 1449,
            "say": 1450,
            "ae": 1451,
            "riend": 1452,
            "Ad": 1453,
            "lim": 1454,
            "mar": 1455,
            "few": 1456,
            "21": 1457,
            "cus": 1458,
            "put": 1459,
            "church": 1460,
            "ged": 1461,
            "mid": 1462,
            "stri": 1463,
            "Li": 1464,
            "Sci": 1465,
            "State": 1466,
            "ium": 1467,
            "ops": 1468,
            "effect": 1469,
            "28": 1470,
            "Ma": 1471,
            "Mc": 1472,
            "quar": 1473,
            "2007": 1474,
            "mp": 1475,
            "ix": 1476,
            "refer": 1477,
            "further": 1478,
            "100": 1479,
            "recorded": 1480,
            "Tr": 1481,
            "fan": 1482,
            "considered": 1483,
            "French": 1484,
            "init": 1485,
            "ending": 1486,
            "take": 1487,
            "aining": 1488,
            "commun": 1489,
            "career": 1490,
            "mag": 1491,
            "rodu": 1492,
            "polit": 1493,
            "ali": 1494,
            "ribut": 1495,
            "urricane": 1496,
            "One": 1497,
            "similar": 1498,
            "suggest": 1499,
            "Pe": 1500,
            "vo": 1501,
            "ze": 1502,
            "ared": 1503,
            "published": 1504,
            "mand": 1505,
            "wind": 1506,
            "level": 1507,
            "elt": 1508,
            "Inter": 1509,
            "With": 1510,
            "body": 1511,
            "without": 1512,
            "military": 1513,
            "Pr": 1514,
            "ories": 1515,
            "itar": 1516,
            "import": 1517,
            "ution": 1518,
            "struct": 1519,
            "members": 1520,
            "production": 1521,
            "you": 1522,
            "strong": 1523,
            "different": 1524,
            "Or": 1525,
            "ampion": 1526,
            "que": 1527,
            "among": 1528,
            "chang": 1529,
            "imes": 1530,
            "written": 1531,
            "English": 1532,
            "Ear": 1533,
            "days": 1534,
            "den": 1535,
            "bert": 1536,
            "2011": 1537,
            "ler": 1538,
            "every": 1539,
            "ai": 1540,
            "songs": 1541,
            "white": 1542,
            "Mis": 1543,
            "pite": 1544,
            "fr": 1545,
            "iment": 1546,
            "tract": 1547,
            "bruary": 1548,
            "February": 1549,
            "Division": 1550,
            "house": 1551,
            "22": 1552,
            "Although": 1553,
            "aur": 1554,
            "however": 1555,
            "sty": 1556,
            "flo": 1557,
            "test": 1558,
            "respon": 1559,
            "vil": 1560,
            "seven": 1561,
            "served": 1562,
            "Dy": 1563,
            "Char": 1564,
            "According": 1565,
            "27": 1566,
            "2006": 1567,
            "ico": 1568,
            "invol": 1569,
            "release": 1570,
            "capt": 1571,
            "night": 1572,
            "bar": 1573,
            "find": 1574,
            "Canad": 1575,
            "lor": 1576,
            "mm": 1577,
            "Count": 1578,
            "stead": 1579,
            "studi": 1580,
            "29": 1581,
            "ness": 1582,
            "went": 1583,
            "lost": 1584,
            "Te": 1585,
            "Australia": 1586,
            "craft": 1587,
            "fire": 1588,
            "scen": 1589,
            "alion": 1590,
            "successful": 1591,
            "mission": 1592,
            "decl": 1593,
            "ploy": 1594,
            "gn": 1595,
            "reported": 1596,
            "augh": 1597,
            "become": 1598,
            "foot": 1599,
            "author": 1600,
            "total": 1601,
            "particular": 1602,
            "Ser": 1603,
            "Mus": 1604,
            "ittle": 1605,
            "title": 1606,
            "provid": 1607,
            "direct": 1608,
            "Park": 1609,
            "tropical": 1610,
            "tour": 1611,
            "divid": 1612,
            "2012": 1613,
            "hold": 1614,
            "ars": 1615,
            "wide": 1616,
            "ided": 1617,
            "ney": 1618,
            "Mich": 1619,
            "gave": 1620,
            "sit": 1621,
            "times": 1622,
            "covered": 1623,
            "Rich": 1624,
            "bas": 1625,
            "enter": 1626,
            "popular": 1627,
            "having": 1628,
            "ination": 1629,
            "aster": 1630,
            "tele": 1631,
            "Bar": 1632,
            "Per": 1633,
            "ger": 1634,
            "vict": 1635,
            "Geor": 1636,
            "how": 1637,
            "ctions": 1638,
            "stated": 1639,
            "ption": 1640,
            "ailed": 1641,
            "graph": 1642,
            "produced": 1643,
            "Po": 1644,
            "app": 1645,
            "prof": 1646,
            "histor": 1647,
            "Air": 1648,
            "friend": 1649,
            "Port": 1650,
            "vol": 1651,
            "fron": 1652,
            "given": 1653,
            "Afric": 1654,
            "wood": 1655,
            "ians": 1656,
            "change": 1657,
            "General": 1658,
            "signific": 1659,
            "ps": 1660,
            "iter": 1661,
            "mod": 1662,
            "include": 1663,
            "League": 1664,
            "Song": 1665,
            "want": 1666,
            "Des": 1667,
            "ford": 1668,
            "never": 1669,
            "post": 1670,
            "ology": 1671,
            "bird": 1672,
            "seen": 1673,
            "cult": 1674,
            "face": 1675,
            "search": 1676,
            "comb": 1677,
            "clear": 1678,
            "construction": 1679,
            "see": 1680,
            "University": 1681,
            "Scot": 1682,
            "Roman": 1683,
            "great": 1684,
            "island": 1685,
            "common": 1686,
            "stre": 1687,
            "beh": 1688,
            "close": 1689,
            "population": 1690,
            "Fo": 1691,
            "Old": 1692,
            "els": 1693,
            "sure": 1694,
            "critic": 1695,
            "children": 1696,
            "indu": 1697,
            "influ": 1698,
            "river": 1699,
            "190": 1700,
            "anno": 1701,
            "tolo": 1702,
            "program": 1703,
            "country": 1704,
            "control": 1705,
            "Min": 1706,
            "cing": 1707,
            "represent": 1708,
            "returned": 1709,
            "depend": 1710,
            "East": 1711,
            "manag": 1712,
            "To": 1713,
            "omet": 1714,
            "ned": 1715,
            "away": 1716,
            "compet": 1717,
            "occur": 1718,
            "Comp": 1719,
            "making": 1720,
            "ices": 1721,
            "aren": 1722,
            "law": 1723,
            "ges": 1724,
            "plan": 1725,
            "project": 1726,
            "2013": 1727,
            "These": 1728,
            "Dylan": 1729,
            "mix": 1730,
            "consist": 1731,
            "look": 1732,
            "William": 1733,
            "ax": 1734,
            "bl": 1735,
            "rad": 1736,
            "too": 1737,
            "developed": 1738,
            "young": 1739,
            "omen": 1740,
            "ways": 1741,
            "America": 1742,
            "Tw": 1743,
            "ator": 1744,
            "should": 1745,
            "Pol": 1746,
            "agre": 1747,
            "Sim": 1748,
            "father": 1749,
            "gl": 1750,
            "word": 1751,
            "itch": 1752,
            "tell": 1753,
            "activ": 1754,
            "blo": 1755,
            "across": 1756,
            "chn": 1757,
            "reached": 1758,
            "County": 1759,
            "net": 1760,
            "ides": 1761,
            "building": 1762,
            "Dav": 1763,
            "destroy": 1764,
            "hour": 1765,
            "coming": 1766,
            "range": 1767,
            "While": 1768,
            "Mount": 1769,
            "performance": 1770,
            "40": 1771,
            "Har": 1772,
            "bur": 1773,
            "lished": 1774,
            "igade": 1775,
            "High": 1776,
            "equ": 1777,
            "works": 1778,
            "entolo": 1779,
            "Scientolo": 1780,
            "significant": 1781,
            "announ": 1782,
            "ither": 1783,
            "itive": 1784,
            "ably": 1785,
            "writing": 1786,
            "ama": 1787,
            "ument": 1788,
            "died": 1789,
            "aign": 1790,
            "rap": 1791,
            "eder": 1792,
            "atic": 1793,
            "throughout": 1794,
            "full": 1795,
            "BC": 1796,
            "Jack": 1797,
            "Vi": 1798,
            "sound": 1799,
            "noted": 1800,
            "rent": 1801,
            "established": 1802,
            "teen": 1803,
            "Ph": 1804,
            "xim": 1805,
            "feet": 1806,
            "aff": 1807,
            "itions": 1808,
            "belie": 1809,
            "earli": 1810,
            "ondon": 1811,
            "aver": 1812,
            "Reg": 1813,
            "London": 1814,
            "ods": 1815,
            "introdu": 1816,
            "miles": 1817,
            "Pro": 1818,
            "thought": 1819,
            "bus": 1820,
            "black": 1821,
            "suf": 1822,
            "himself": 1823,
            "killed": 1824,
            "Ire": 1825,
            "eight": 1826,
            "board": 1827,
            "key": 1828,
            "fem": 1829,
            "chart": 1830,
            "areas": 1831,
            "performed": 1832,
            "antic": 1833,
            "official": 1834,
            "sum": 1835,
            "felt": 1836,
            "hip": 1837,
            "pur": 1838,
            "development": 1839,
            "fle": 1840,
            "cou": 1841,
            "mount": 1842,
            "quad": 1843,
            "novel": 1844,
            "Ireland": 1845,
            "Ed": 1846,
            "ug": 1847,
            "ances": 1848,
            "ones": 1849,
            "live": 1850,
            "complete": 1851,
            "Japanese": 1852,
            "ified": 1853,
            "sett": 1854,
            "various": 1855,
            "front": 1856,
            "television": 1857,
            "lay": 1858,
            "Road": 1859,
            "Black": 1860,
            "amb": 1861,
            "grow": 1862,
            "located": 1863,
            "appeared": 1864,
            "na": 1865,
            "important": 1866,
            "ior": 1867,
            "players": 1868,
            "medi": 1869,
            "ades": 1870,
            "reek": 1871,
            "interest": 1872,
            "60": 1873,
            "rul": 1874,
            "room": 1875,
            "aint": 1876,
            "prim": 1877,
            "theast": 1878,
            "pra": 1879,
            "human": 1880,
            "style": 1881,
            "Care": 1882,
            "fight": 1883,
            "alth": 1884,
            "acy": 1885,
            "James": 1886,
            "Of": 1887,
            "started": 1888,
            "aul": 1889,
            "Atl": 1890,
            "political": 1891,
            "bor": 1892,
            "itted": 1893,
            "trave": 1894,
            "Roy": 1895,
            "others": 1896,
            "battle": 1897,
            "Ha": 1898,
            "created": 1899,
            "Ang": 1900,
            "Army": 1901,
            "typ": 1902,
            "relig": 1903,
            "arried": 1904,
            "ots": 1905,
            "2005": 1906,
            "cil": 1907,
            "iness": 1908,
            "gether": 1909,
            "idence": 1910,
            "experi": 1911,
            "need": 1912,
            "events": 1913,
            "does": 1914,
            "modern": 1915,
            "nd": 1916,
            "appoint": 1917,
            "189": 1918,
            "sk": 1919,
            "ives": 1920,
            "Hist": 1921,
            "campaign": 1922,
            "Wal": 1923,
            "ring": 1924,
            "rock": 1925,
            "rick": 1926,
            "Ho": 1927,
            "Rou": 1928,
            "fig": 1929,
            "ison": 1930,
            "remained": 1931,
            "tion": 1932,
            "taken": 1933,
            "ensive": 1934,
            "caused": 1935,
            "techn": 1936,
            "relation": 1937,
            "completed": 1938,
            "region": 1939,
            "TV": 1940,
            "Cor": 1941,
            "fun": 1942,
            "coast": 1943,
            "scri": 1944,
            "survi": 1945,
            "fav": 1946,
            "van": 1947,
            "aves": 1948,
            "Island": 1949,
            "ael": 1950,
            "da": 1951,
            "stage": 1952,
            "formation": 1953,
            "good": 1954,
            "rew": 1955,
            "begin": 1956,
            "abor": 1957,
            "ample": 1958,
            "You": 1959,
            "born": 1960,
            "ublic": 1961,
            "Town": 1962,
            "core": 1963,
            "odes": 1964,
            "followed": 1965,
            "Ber": 1966,
            "Ke": 1967,
            "nal": 1968,
            "offer": 1969,
            "guns": 1970,
            "bes": 1971,
            "omin": 1972,
            "2004": 1973,
            "vest": 1974,
            "pression": 1975,
            "Scientology": 1976,
            "mun": 1977,
            "vill": 1978,
            "cru": 1979,
            "stant": 1980,
            "ope": 1981,
            "pair": 1982,
            "sex": 1983,
            "mother": 1984,
            "fantry": 1985,
            "once": 1986,
            "poem": 1987,
            "route": 1988,
            "originally": 1989,
            "gar": 1990,
            "minist": 1991,
            "characters": 1992,
            "Sy": 1993,
            "ked": 1994,
            "Stre": 1995,
            "added": 1996,
            "far": 1997,
            "grad": 1998,
            "meet": 1999,
            "troops": 2000,
            "cell": 2001,
            "member": 2002,
            "announced": 2003,
            "nu": 2004,
            "saw": 2005,
            "ficult": 2006,
            "difficult": 2007,
            "ological": 2008,
            "months": 2009,
            "ago": 2010,
            "cert": 2011,
            "Route": 2012,
            "Pal": 2013,
            "heavy": 2014,
            "tra": 2015,
            "southern": 2016,
            "Bl": 2017,
            "Ex": 2018,
            "little": 2019,
            "comment": 2020,
            "arded": 2021,
            "cient": 2022,
            "rought": 2023,
            "eastern": 2024,
            "Music": 2025,
            "Mag": 2026,
            "Ne": 2027,
            "mor": 2028,
            "anim": 2029,
            "iting": 2030,
            "peak": 2031,
            "Phil": 2032,
            "sess": 2033,
            "instead": 2034,
            "loss": 2035,
            "ively": 2036,
            "highway": 2037,
            "possible": 2038,
            "David": 2039,
            "dri": 2040,
            "lines": 2041,
            "vert": 2042,
            "Cap": 2043,
            "ues": 2044,
            "omb": 2045,
            "process": 2046,
            "ought": 2047,
            "scored": 2048,
            "Kingdom": 2049,
            "Company": 2050,
            "base": 2051,
            "stat": 2052,
            "asing": 2053,
            "ising": 2054,
            "associ": 2055,
            "least": 2056,
            "Some": 2057,
            "burn": 2058,
            "enced": 2059,
            "debut": 2060,
            "utes": 2061,
            "exist": 2062,
            "pred": 2063,
            "goal": 2064,
            "know": 2065,
            "help": 2066,
            "Other": 2067,
            "ks": 2068,
            "entire": 2069,
            "bet": 2070,
            "critics": 2071,
            "rain": 2072,
            "Su": 2073,
            "conne": 2074,
            "cogn": 2075,
            "Ham": 2076,
            "cir": 2077,
            "tar": 2078,
            "together": 2079,
            "redu": 2080,
            "Mont": 2081,
            "tradition": 2082,
            "Mer": 2083,
            "nia": 2084,
            "exp": 2085,
            "regular": 2086,
            "Carey": 2087,
            "playing": 2088,
            "188": 2089,
            "host": 2090,
            "opened": 2091,
            "names": 2092,
            "lect": 2093,
            "voc": 2094,
            "yard": 2095,
            "forced": 2096,
            "termin": 2097,
            "stars": 2098,
            "decided": 2099,
            "Battalion": 2100,
            "ampionship": 2101,
            "wall": 2102,
            "yards": 2103,
            "resident": 2104,
            "employ": 2105,
            "wife": 2106,
            "Wales": 2107,
            "broad": 2108,
            "case": 2109,
            "cause": 2110,
            "vic": 2111,
            "special": 2112,
            "Two": 2113,
            "stone": 2114,
            "current": 2115,
            "court": 2116,
            "sport": 2117,
            "towards": 2118,
            "compan": 2119,
            "features": 2120,
            "eventually": 2121,
            "2003": 2122,
            "Cup": 2123,
            "Day": 2124,
            "Feder": 2125,
            "era": 2126,
            "defe": 2127,
            "crew": 2128,
            "behind": 2129,
            "Som": 2130,
            "inc": 2131,
            "recogn": 2132,
            "ality": 2133,
            "Robert": 2134,
            "women": 2135,
            "estim": 2136,
            "ization": 2137,
            "featured": 2138,
            "non": 2139,
            "separ": 2140,
            "ability": 2141,
            "spir": 2142,
            "points": 2143,
            "avi": 2144,
            "aper": 2145,
            "lled": 2146,
            "profess": 2147,
            "got": 2148,
            "inch": 2149,
            "semb": 2150,
            "subsequ": 2151,
            "study": 2152,
            "commer": 2153,
            "finished": 2154,
            "tempor": 2155,
            "operations": 2156,
            "break": 2157,
            "hurricane": 2158,
            "uck": 2159,
            "rail": 2160,
            "fourth": 2161,
            "Bill": 2162,
            "ible": 2163,
            "impro": 2164,
            "fif": 2165,
            "northern": 2166,
            "Grand": 2167,
            "claimed": 2168,
            "Royal": 2169,
            "AA": 2170,
            "hor": 2171,
            "leading": 2172,
            "azine": 2173,
            "France": 2174,
            "sl": 2175,
            "sold": 2176,
            "tre": 2177,
            "individ": 2178,
            "accept": 2179,
            "ull": 2180,
            "2015": 2181,
            "aircraft": 2182,
            "service": 2183,
            "aly": 2184,
            "forms": 2185,
            "directed": 2186,
            "Indian": 2187,
            "pie": 2188,
            "western": 2189,
            "35": 2190,
            "Follow": 2191,
            "Mad": 2192,
            "cup": 2193,
            "either": 2194,
            "almost": 2195,
            "Street": 2196,
            "Mex": 2197,
            "don": 2198,
            "oted": 2199,
            "example": 2200,
            "Ze": 2201,
            "ique": 2202,
            "nat": 2203,
            "units": 2204,
            "aland": 2205,
            "Love": 2206,
            "uses": 2207,
            "press": 2208,
            "Thom": 2209,
            "Ab": 2210,
            "El": 2211,
            "brought": 2212,
            "section": 2213,
            "respect": 2214,
            "proble": 2215,
            "central": 2216,
            "speci": 2217,
            "appearance": 2218,
            "quadron": 2219,
            "Following": 2220,
            "hab": 2221,
            "ier": 2222,
            "vir": 2223,
            "assist": 2224,
            "upon": 2225,
            "damage": 2226,
            "Mi": 2227,
            "igned": 2228,
            "writer": 2229,
            "approach": 2230,
            "George": 2231,
            "believed": 2232,
            "ceed": 2233,
            "elect": 2234,
            "Brigade": 2235,
            "opening": 2236,
            "laun": 2237,
            "weeks": 2238,
            "International": 2239,
            "31": 2240,
            "cross": 2241,
            "lower": 2242,
            "ception": 2243,
            "ready": 2244,
            "dou": 2245,
            "concl": 2246,
            "European": 2247,
            "mph": 2248,
            "ington": 2249,
            "Paul": 2250,
            "pat": 2251,
            "ply": 2252,
            "ota": 2253,
            "general": 2254,
            "mot": 2255,
            "sis": 2256,
            "icated": 2257,
            "term": 2258,
            "stry": 2259,
            "largest": 2260,
            "Dr": 2261,
            "dle": 2262,
            "ament": 2263,
            "Viet": 2264,
            "Fir": 2265,
            "uc": 2266,
            "amo": 2267,
            "provided": 2268,
            "Part": 2269,
            "mater": 2270,
            "2nd": 2271,
            "70": 2272,
            "Mor": 2273,
            "Rep": 2274,
            "cop": 2275,
            "strict": 2276,
            "elements": 2277,
            "birds": 2278,
            "hon": 2279,
            "condu": 2280,
            "ends": 2281,
            "joined": 2282,
            "sts": 2283,
            "director": 2284,
            "generally": 2285,
            "From": 2286,
            "Hill": 2287,
            "Oli": 2288,
            "ault": 2289,
            "nine": 2290,
            "hest": 2291,
            "mean": 2292,
            "sour": 2293,
            "lear": 2294,
            "audi": 2295,
            "500": 2296,
            "sw": 2297,
            "bel": 2298,
            "cret": 2299,
            "rather": 2300,
            "langu": 2301,
            "liament": 2302,
            "Act": 2303,
            "Cent": 2304,
            "mas": 2305,
            "ration": 2306,
            "ties": 2307,
            "working": 2308,
            "counter": 2309,
            "saying": 2310,
            "victory": 2311,
            "God": 2312,
            "Hen": 2313,
            "ey": 2314,
            "leng": 2315,
            "reve": 2316,
            "condom": 2317,
            "engine": 2318,
            "Play": 2319,
            "Game": 2320,
            "House": 2321,
            "heel": 2322,
            "2001": 2323,
            "parts": 2324,
            "sea": 2325,
            "vers": 2326,
            "Command": 2327,
            "allowed": 2328,
            "earlier": 2329,
            "race": 2330,
            "invest": 2331,
            "research": 2332,
            "compl": 2333,
            "illa": 2334,
            "worked": 2335,
            "White": 2336,
            "graphy": 2337,
            "wanted": 2338,
            "fre": 2339,
            "conom": 2340,
            "Dep": 2341,
            "ators": 2342,
            "Christian": 2343,
            "suffer": 2344,
            "plann": 2345,
            "bodi": 2346,
            "Creek": 2347,
            "Flor": 2348,
            "free": 2349,
            "inal": 2350,
            "ara": 2351,
            "meas": 2352,
            "Zealand": 2353,
            "length": 2354,
            "19th": 2355,
            "involved": 2356,
            "hours": 2357,
            "Federer": 2358,
            "fly": 2359,
            "fund": 2360,
            "adem": 2361,
            "contract": 2362,
            "ellow": 2363,
            "Atlantic": 2364,
            "38": 2365,
            "Ev": 2366,
            "reason": 2367,
            "ida": 2368,
            "outside": 2369,
            "Michael": 2370,
            "First": 2371,
            "inj": 2372,
            "stren": 2373,
            "mode": 2374,
            "anti": 2375,
            "cially": 2376,
            "Star": 2377,
            "particularly": 2378,
            "business": 2379,
            "Du": 2380,
            "ential": 2381,
            "det": 2382,
            "2014": 2383,
            "manager": 2384,
            "Val": 2385,
            "ping": 2386,
            "evidence": 2387,
            "Gre": 2388,
            "pract": 2389,
            "coll": 2390,
            "useum": 2391,
            "ros": 2392,
            "via": 2393,
            "ino": 2394,
            "ishing": 2395,
            "certain": 2396,
            "standing": 2397,
            "San": 2398,
            "nar": 2399,
            "tel": 2400,
            "III": 2401,
            "female": 2402,
            "streng": 2403,
            "Jew": 2404,
            "replaced": 2405,
            "seem": 2406,
            "designed": 2407,
            "Hero": 2408,
            "quarter": 2409,
            "reli": 2410,
            "ention": 2411,
            "sip": 2412,
            "ordan": 2413,
            "structure": 2414,
            "Despite": 2415,
            "My": 2416,
            "SA": 2417,
            "think": 2418,
            "ission": 2419,
            "urb": 2420,
            "whom": 2421,
            "sho": 2422,
            "avail": 2423,
            "issue": 2424,
            "praised": 2425,
            "45": 2426,
            "Am": 2427,
            "Lo": 2428,
            "Sw": 2429,
            "pi": 2430,
            "scre": 2431,
            "tor": 2432,
            "Jordan": 2433,
            "Med": 2434,
            "Mark": 2435,
            "ighest": 2436,
            "acc": 2437,
            "civil": 2438,
            "pressed": 2439,
            "flight": 2440,
            "previously": 2441,
            "Ir": 2442,
            "Mary": 2443,
            "prob": 2444,
            "bound": 2445,
            "increased": 2446,
            "Bay": 2447,
            "Red": 2448,
            "ded": 2449,
            "drop": 2450,
            "har": 2451,
            "threat": 2452,
            "stay": 2453,
            "deli": 2454,
            "tee": 2455,
            "Coun": 2456,
            "gg": 2457,
            "ape": 2458,
            "soon": 2459,
            "lands": 2460,
            "ranch": 2461,
            "Rock": 2462,
            "highest": 2463,
            "taking": 2464,
            "station": 2465,
            "above": 2466,
            "love": 2467,
            "Florida": 2468,
            "hous": 2469,
            "account": 2470,
            "territ": 2471,
            "ributed": 2472,
            "But": 2473,
            "mach": 2474,
            "stop": 2475,
            "sia": 2476,
            "depict": 2477,
            "Richard": 2478,
            "phas": 2479,
            "inst": 2480,
            "shot": 2481,
            "clos": 2482,
            "Britain": 2483,
            "remains": 2484,
            "passed": 2485,
            "football": 2486,
            "amount": 2487,
            "lin": 2488,
            "185": 2489,
            "Don": 2490,
            "hib": 2491,
            "nel": 2492,
            "poor": 2493,
            "quest": 2494,
            "viol": 2495,
            "going": 2496,
            "script": 2497,
            "material": 2498,
            "Later": 2499,
            "cern": 2500,
            "date": 2501,
            "rid": 2502,
            "argu": 2503,
            "deal": 2504,
            "Chin": 2505,
            "positive": 2506,
            "appointed": 2507,
            "Thomas": 2508,
            "Best": 2509,
            "Cr": 2510,
            "native": 2511,
            "past": 2512,
            "vice": 2513,
            "itself": 2514,
            "comes": 2515,
            "turned": 2516,
            "ief": 2517,
            "ples": 2518,
            "quick": 2519,
            "interview": 2520,
            "Carol": 2521,
            "erous": 2522,
            "touch": 2523,
            "ival": 2524,
            "souri": 2525,
            "Missouri": 2526,
            "flood": 2527,
            "Que": 2528,
            "ik": 2529,
            "pain": 2530,
            "atin": 2531,
            "ordered": 2532,
            "maintain": 2533,
            "likely": 2534,
            "Bus": 2535,
            "Bra": 2536,
            "Pri": 2537,
            "spo": 2538,
            "aces": 2539,
            "discus": 2540,
            "type": 2541,
            "transport": 2542,
            "situ": 2543,
            "ecut": 2544,
            "ield": 2545,
            "err": 2546,
            "alter": 2547,
            "rang": 2548,
            "responsi": 2549,
            "mixed": 2550,
            "block": 2551,
            "defeated": 2552,
            "Ap": 2553,
            "gold": 2554,
            "ata": 2555,
            "actions": 2556,
            "186": 2557,
            "soldi": 2558,
            "scene": 2559,
            "average": 2560,
            "Egy": 2561,
            "hit": 2562,
            "occup": 2563,
            "winds": 2564,
            "available": 2565,
            "oring": 2566,
            "pool": 2567,
            "aval": 2568,
            "establish": 2569,
            "Canada": 2570,
            "75": 2571,
            "cul": 2572,
            "dol": 2573,
            "nes": 2574,
            "ened": 2575,
            "sell": 2576,
            "achie": 2577,
            "signed": 2578,
            "listed": 2579,
            "estimated": 2580,
            "Mexico": 2581,
            "Pac": 2582,
            "School": 2583,
            "somet": 2584,
            "ids": 2585,
            "2002": 2586,
            "prepar": 2587,
            "Tech": 2588,
            "Scott": 2589,
            "90": 2590,
            "Gal": 2591,
            "Ros": 2592,
            "ha": 2593,
            "treat": 2594,
            "recent": 2595,
            "aries": 2596,
            "Union": 2597,
            "arrived": 2598,
            "cycl": 2599,
            "religious": 2600,
            "specific": 2601,
            "ff": 2602,
            "army": 2603,
            "surround": 2604,
            "econom": 2605,
            "ming": 2606,
            "vin": 2607,
            "international": 2608,
            "flict": 2609,
            "80": 2610,
            "bill": 2611,
            "asked": 2612,
            "brother": 2613,
            "relationship": 2614,
            "Chinese": 2615,
            "ald": 2616,
            "told": 2617,
            "beli": 2618,
            "oney": 2619,
            "Republic": 2620,
            "Henry": 2621,
            "guitar": 2622,
            "Most": 2623,
            "limited": 2624,
            "community": 2625,
            "Early": 2626,
            "President": 2627,
            "hom": 2628,
            "mult": 2629,
            "uel": 2630,
            "secur": 2631,
            "whose": 2632,
            "despite": 2633,
            "transfer": 2634,
            "temporary": 2635,
            "Cam": 2636,
            "Times": 2637,
            "watch": 2638,
            "states": 2639,
            "immedi": 2640,
            "cts": 2641,
            "bridge": 2642,
            "running": 2643,
            "suggested": 2644,
            "Peter": 2645,
            "dy": 2646,
            "give": 2647,
            "must": 2648,
            "Pacific": 2649,
            "Vir": 2650,
            "ica": 2651,
            "bell": 2652,
            "usually": 2653,
            "proper": 2654,
            "pected": 2655,
            "recording": 2656,
            "consider": 2657,
            "particip": 2658,
            "India": 2659,
            "initially": 2660,
            "changes": 2661,
            "Ver": 2662,
            "pond": 2663,
            "clo": 2664,
            "shows": 2665,
            "positions": 2666,
            "ximately": 2667,
            "Str": 2668,
            "bri": 2669,
            "training": 2670,
            "size": 2671,
            "Egypt": 2672,
            "Rus": 2673,
            "slow": 2674,
            "thus": 2675,
            "forward": 2676,
            "perform": 2677,
            "introduced": 2678,
            "village": 2679,
            "mass": 2680,
            "arily": 2681,
            "chap": 2682,
            "super": 2683,
            "center": 2684,
            "commission": 2685,
            "damaged": 2686,
            "increasing": 2687,
            "possib": 2688,
            "captured": 2689,
            "Gold": 2690,
            "Tor": 2691,
            "Angel": 2692,
            "Brown": 2693,
            "FA": 2694,
            "Hu": 2695,
            "aled": 2696,
            "lected": 2697,
            "chol": 2698,
            "irth": 2699,
            "cost": 2700,
            "Championship": 2701,
            "osaur": 2702,
            "goals": 2703,
            "nearly": 2704,
            "studio": 2705,
            "agreed": 2706,
            "Fort": 2707,
            "failed": 2708,
            "rate": 2709,
            "independ": 2710,
            "already": 2711,
            "defeat": 2712,
            "vier": 2713,
            "marked": 2714,
            "reviews": 2715,
            "commercial": 2716,
            "Cong": 2717,
            "NA": 2718,
            "Navy": 2719,
            "aut": 2720,
            "might": 2721,
            "vate": 2722,
            "ana": 2723,
            "according": 2724,
            "istic": 2725,
            "occas": 2726,
            "visit": 2727,
            "required": 2728,
            "winning": 2729,
            "Oldham": 2730,
            "probably": 2731,
            "Cro": 2732,
            "Jer": 2733,
            "defin": 2734,
            "usion": 2735,
            "That": 2736,
            "object": 2737,
            "Canadian": 2738,
            "pot": 2739,
            "ilities": 2740,
            "concern": 2741,
            "Arab": 2742,
            "response": 2743,
            "Regiment": 2744,
            "beginning": 2745,
            "Irish": 2746,
            "doc": 2747,
            "lam": 2748,
            "ray": 2749,
            "inated": 2750,
            "educ": 2751,
            "enough": 2752,
            "league": 2753,
            "includes": 2754,
            "minor": 2755,
            "1st": 2756,
            "Hall": 2757,
            "Sun": 2758,
            "daugh": 2759,
            "ula": 2760,
            "ference": 2761,
            "police": 2762,
            "Olivier": 2763,
            "36": 2764,
            "Em": 2765,
            "Hurricane": 2766,
            "Mal": 2767,
            "Many": 2768,
            "hap": 2769,
            "ken": 2770,
            "mur": 2771,
            "text": 2772,
            "ister": 2773,
            "prevent": 2774,
            "colon": 2775,
            "ronic": 2776,
            "capital": 2777,
            "quarters": 2778,
            "Africa": 2779,
            "hard": 2780,
            "latter": 2781,
            "respond": 2782,
            "moving": 2783,
            "mention": 2784,
            "decision": 2785,
            "Mid": 2786,
            "Sing": 2787,
            "bow": 2788,
            "woman": 2789,
            "aters": 2790,
            "print": 2791,
            "archae": 2792,
            "Art": 2793,
            "remaining": 2794,
            "History": 2795,
            "Hol": 2796,
            "Res": 2797,
            "ky": 2798,
            "sen": 2799,
            "aring": 2800,
            "ita": 2801,
            "urt": 2802,
            "execut": 2803,
            "rics": 2804,
            "related": 2805,
            "Colle": 2806,
            "Battle": 2807,
            "better": 2808,
            "achel": 2809,
            "depression": 2810,
            "ateg": 2811,
            "social": 2812,
            "feel": 2813,
            "2000": 2814,
            "uded": 2815,
            "space": 2816,
            "Germany": 2817,
            "natural": 2818,
            "male": 2819,
            "staff": 2820,
            "espe": 2821,
            "amed": 2822,
            "prog": 2823,
            "spent": 2824,
            "Charles": 2825,
            "sometimes": 2826,
            "especially": 2827,
            "Cour": 2828,
            "Hel": 2829,
            "uture": 2830,
            "supported": 2831,
            "Western": 2832,
            "Jin": 2833,
            "fail": 2834,
            "here": 2835,
            "ient": 2836,
            "nation": 2837,
            "sat": 2838,
            "olic": 2839,
            "187": 2840,
            "Associ": 2841,
            "location": 2842,
            "Guitar": 2843,
            "jour": 2844,
            "lot": 2845,
            "thedr": 2846,
            "enj": 2847,
            "dead": 2848,
            "arts": 2849,
            "phys": 2850,
            "runs": 2851,
            "approximately": 2852,
            "habit": 2853,
            "Great": 2854,
            "Oper": 2855,
            "Wheel": 2856,
            "pan": 2857,
            "exten": 2858,
            "keep": 2859,
            "Rose": 2860,
            "rison": 2861,
            "fleet": 2862,
            "language": 2863,
            "NY": 2864,
            "mal": 2865,
            "rd": 2866,
            "anish": 2867,
            "shown": 2868,
            "artment": 2869,
            "office": 2870,
            "constructed": 2871,
            "Mac": 2872,
            "Sou": 2873,
            "UK": 2874,
            "bit": 2875,
            "idents": 2876,
            "uments": 2877,
            "provide": 2878,
            "pound": 2879,
            "quare": 2880,
            "affic": 2881,
            "overnor": 2882,
            "mond": 2883,
            "pho": 2884,
            "Awards": 2885,
            "Law": 2886,
            "liter": 2887,
            "whe": 2888,
            "mostly": 2889,
            "additional": 2890,
            "Award": 2891,
            "ries": 2892,
            "illery": 2893,
            "coach": 2894,
            "prior": 2895,
            "magazine": 2896,
            "Super": 2897,
            "soldiers": 2898,
            "33": 2899,
            "notes": 2900,
            "president": 2901,
            "anna": 2902,
            "fighting": 2903,
            "Film": 2904,
            "god": 2905,
            "edy": 2906,
            "ederal": 2907,
            "iss": 2908,
            "itz": 2909,
            "cele": 2910,
            "sian": 2911,
            "exc": 2912,
            "aven": 2913,
            "groups": 2914,
            "subsequently": 2915,
            "Light": 2916,
            "Tom": 2917,
            "Year": 2918,
            "birth": 2919,
            "atory": 2920,
            "reser": 2921,
            "active": 2922,
            "assigned": 2923,
            "minutes": 2924,
            "1995": 2925,
            "larger": 2926,
            "subject": 2927,
            "media": 2928,
            "tons": 2929,
            "cal": 2930,
            "selves": 2931,
            "operation": 2932,
            "Lu": 2933,
            "bot": 2934,
            "oid": 2935,
            "favor": 2936,
            "broadcast": 2937,
            "thedral": 2938,
            "Cath": 2939,
            "Pre": 2940,
            "fell": 2941,
            "fru": 2942,
            "ga": 2943,
            "becoming": 2944,
            "food": 2945,
            "plays": 2946,
            "syn": 2947,
            "metres": 2948,
            "Wheeler": 2949,
            "Penn": 2950,
            "pay": 2951,
            "depart": 2952,
            "concert": 2953,
            "evol": 2954,
            "Another": 2955,
            "changed": 2956,
            "frequ": 2957,
            "ication": 2958,
            "roll": 2959,
            "pose": 2960,
            "exam": 2961,
            "intended": 2962,
            "discovered": 2963,
            "feature": 2964,
            "Gl": 2965,
            "poet": 2966,
            "referred": 2967,
            "circ": 2968,
            "Virgin": 2969,
            "Lad": 2970,
            "Tour": 2971,
            "future": 2972,
            "yer": 2973,
            "acqu": 2974,
            "appl": 2975,
            "lies": 2976,
            "percent": 2977,
            "ranked": 2978,
            "themselves": 2979,
            "students": 2980,
            "Mr": 2981,
            "aby": 2982,
            "pitch": 2983,
            "wound": 2984,
            "nest": 2985,
            "election": 2986,
            "summer": 2987,
            "professional": 2988,
            "48": 2989,
            "flow": 2990,
            "score": 2991,
            "conf": 2992,
            "ctive": 2993,
            "pressure": 2994,
            "idea": 2995,
            "smaller": 2996,
            "fifth": 2997,
            "Gro": 2998,
            "sal": 2999,
            "orial": 3000,
            "traffic": 3001,
            "Since": 3002,
            "paren": 3003,
            "uals": 3004,
            "reme": 3005,
            "entered": 3006,
            "cean": 3007,
            "agon": 3008,
            "teach": 3009,
            "ize": 3010,
            "Frank": 3011,
            "Billboard": 3012,
            "Hor": 3013,
            "Oly": 3014,
            "Rachel": 3015,
            "Vict": 3016,
            "kil": 3017,
            "makes": 3018,
            "ny": 3019,
            "create": 3020,
            "relative": 3021,
            "teams": 3022,
            "Olymp": 3023,
            "asy": 3024,
            "lyrics": 3025,
            "contr": 3026,
            "atest": 3027,
            "box": 3028,
            "temper": 3029,
            "surface": 3030,
            "course": 3031,
            "closed": 3032,
            "cred": 3033,
            "send": 3034,
            "inci": 3035,
            "contains": 3036,
            "spital": 3037,
            "appears": 3038,
            "largely": 3039,
            "primary": 3040,
            "Association": 3041,
            "37": 3042,
            "Camp": 3043,
            "andon": 3044,
            "1950": 3045,
            "1999": 3046,
            "musical": 3047,
            "Spanish": 3048,
            "Council": 3049,
            "Back": 3050,
            "Go": 3051,
            "Mos": 3052,
            "Tur": 3053,
            "fill": 3054,
            "hair": 3055,
            "mir": 3056,
            "pit": 3057,
            "pers": 3058,
            "tray": 3059,
            "officers": 3060,
            "effects": 3061,
            "occurred": 3062,
            "RA": 3063,
            "cm": 3064,
            "carried": 3065,
            "fans": 3066,
            "hop": 3067,
            "link": 3068,
            "ander": 3069,
            "demon": 3070,
            "pring": 3071,
            "prison": 3072,
            "majority": 3073,
            "FI": 3074,
            "sil": 3075,
            "onto": 3076,
            "ami": 3077,
            "plot": 3078,
            "lived": 3079,
            "Arch": 3080,
            "problems": 3081,
            "Bel": 3082,
            "Ri": 3083,
            "money": 3084,
            "adop": 3085,
            "withdraw": 3086,
            "Under": 3087,
            "launched": 3088,
            "Not": 3089,
            "gins": 3090,
            "ses": 3091,
            "schol": 3092,
            "assi": 3093,
            "deep": 3094,
            "imp": 3095,
            "indic": 3096,
            "jected": 3097,
            "stein": 3098,
            "alifor": 3099,
            "radio": 3100,
            "experience": 3101,
            "How": 3102,
            "Tem": 3103,
            "nomin": 3104,
            "sus": 3105,
            "vement": 3106,
            "otion": 3107,
            "ership": 3108,
            "pole": 3109,
            "ails": 3110,
            "1998": 3111,
            "films": 3112,
            "attacks": 3113,
            "voice": 3114,
            "investig": 3115,
            "400": 3116,
            "Cer": 3117,
            "Squadron": 3118,
            "mitted": 3119,
            "leaving": 3120,
            "administ": 3121,
            "ume": 3122,
            "proposed": 3123,
            "Infantry": 3124,
            "Station": 3125,
            "grant": 3126,
            "critical": 3127,
            "stitute": 3128,
            "stream": 3129,
            "Central": 3130,
            "Lou": 3131,
            "bal": 3132,
            "secut": 3133,
            "adap": 3134,
            "aker": 3135,
            "ishop": 3136,
            "Record": 3137,
            "arriage": 3138,
            "settle": 3139,
            "Califor": 3140,
            "Lord": 3141,
            "Ot": 3142,
            "jud": 3143,
            "ns": 3144,
            "edge": 3145,
            "ifa": 3146,
            "market": 3147,
            "culture": 3148,
            "destroyed": 3149,
            "suffered": 3150,
            "brief": 3151,
            "Ale": 3152,
            "nature": 3153,
            "always": 3154,
            "exper": 3155,
            "20th": 3156,
            "legal": 3157,
            "request": 3158,
            "equip": 3159,
            "39": 3160,
            "Dan": 3161,
            "Mil": 3162,
            "rare": 3163,
            "igan": 3164,
            "2016": 3165,
            "rael": 3166,
            "northeast": 3167,
            "Second": 3168,
            "aught": 3169,
            "Bri": 3170,
            "mom": 3171,
            "takes": 3172,
            "ergy": 3173,
            "emer": 3174,
            "ify": 3175,
            "venue": 3176,
            "complex": 3177,
            "Force": 3178,
            "rapid": 3179,
            "Haifa": 3180,
            "commented": 3181,
            "conducted": 3182,
            "whether": 3183,
            "Gul": 3184,
            "Lake": 3185,
            "Wood": 3186,
            "bio": 3187,
            "rup": 3188,
            "zz": 3189,
            "insp": 3190,
            "conflict": 3191,
            "apo": 3192,
            "plans": 3193,
            "overall": 3194,
            "ept": 3195,
            "serious": 3196,
            "awarded": 3197,
            "casual": 3198,
            "performances": 3199,
            "African": 3200,
            "quickly": 3201,
            "Mart": 3202,
            "job": 3203,
            "rein": 3204,
            "enon": 3205,
            "aging": 3206,
            "bring": 3207,
            "Common": 3208,
            "ario": 3209,
            "increase": 3210,
            "private": 3211,
            "Jewish": 3212,
            "Croat": 3213,
            "49": 3214,
            "If": 3215,
            "Land": 3216,
            "dig": 3217,
            "mel": 3218,
            "ado": 3219,
            "dem": 3220,
            "undred": 3221,
            "neg": 3222,
            "twent": 3223,
            "commit": 3224,
            "episodes": 3225,
            "Parliament": 3226,
            "McC": 3227,
            "directly": 3228,
            "meaning": 3229,
            "daughter": 3230,
            "celebr": 3231,
            "Over": 3232,
            "married": 3233,
            "purch": 3234,
            "stories": 3235,
            "umb": 3236,
            "artillery": 3237,
            "upper": 3238,
            "minute": 3239,
            "numbers": 3240,
            "observ": 3241,
            "Israel": 3242,
            "scenes": 3243,
            "companies": 3244,
            "California": 3245,
            "Bro": 3246,
            "Spe": 3247,
            "ben": 3248,
            "hol": 3249,
            "eding": 3250,
            "abandon": 3251,
            "Studi": 3252,
            "newsp": 3253,
            "1993": 3254,
            "syl": 3255,
            "Brad": 3256,
            "advance": 3257,
            "competition": 3258,
            "bodies": 3259,
            "Court": 3260,
            "Victor": 3261,
            "Tri": 3262,
            "kan": 3263,
            "unit": 3264,
            "trade": 3265,
            "earned": 3266,
            "party": 3267,
            "aily": 3268,
            "writers": 3269,
            "corpor": 3270,
            "Earth": 3271,
            "influence": 3272,
            "screen": 3273,
            "Galve": 3274,
            "47": 3275,
            "Bal": 3276,
            "Haw": 3277,
            "kind": 3278,
            "forts": 3279,
            "determin": 3280,
            "expected": 3281,
            "load": 3282,
            "records": 3283,
            "Northern": 3284,
            "longer": 3285,
            "attacked": 3286,
            "issued": 3287,
            "gir": 3288,
            "pian": 3289,
            "ream": 3290,
            "sey": 3291,
            "1930": 3292,
            "compared": 3293,
            "meth": 3294,
            "meant": 3295,
            "finan": 3296,
            "fles": 3297,
            "personal": 3298,
            "ville": 3299,
            "Fin": 3300,
            "theme": 3301,
            "terms": 3302,
            "vie": 3303,
            "Chic": 3304,
            "finally": 3305,
            "Enter": 3306,
            "mith": 3307,
            "sequence": 3308,
            "industry": 3309,
            "piece": 3310,
            "Galveston": 3311,
            "Im": 3312,
            "done": 3313,
            "pet": 3314,
            "uter": 3315,
            "tom": 3316,
            "ites": 3317,
            "health": 3318,
            "access": 3319,
            "ultim": 3320,
            "fected": 3321,
            "portion": 3322,
            "Ital": 3323,
            "speed": 3324,
            "books": 3325,
            "matches": 3326,
            "planned": 3327,
            "ML": 3328,
            "Var": 3329,
            "bad": 3330,
            "gods": 3331,
            "mig": 3332,
            "sched": 3333,
            "ases": 3334,
            "leave": 3335,
            "vey": 3336,
            "China": 3337,
            "1996": 3338,
            "buildings": 3339,
            "status": 3340,
            "Catholic": 3341,
            "300": 3342,
            "Fle": 3343,
            "Pat": 3344,
            "Tay": 3345,
            "throw": 3346,
            "earth": 3347,
            "raised": 3348,
            "Bey": 3349,
            "giving": 3350,
            "movement": 3351,
            "network": 3352,
            "associated": 3353,
            "32": 3354,
            "Qu": 3355,
            "Tex": 3356,
            "hus": 3357,
            "waters": 3358,
            "ports": 3359,
            "double": 3360,
            "murder": 3361,
            "pal": 3362,
            "rat": 3363,
            "zy": 3364,
            "Its": 3365,
            "Michigan": 3366,
            "thick": 3367,
            "removed": 3368,
            "suit": 3369,
            "necess": 3370,
            "whole": 3371,
            "Through": 3372,
            "discover": 3373,
            "1997": 3374,
            "fully": 3375,
            "Department": 3376,
            "3rd": 3377,
            "Saint": 3378,
            "bomb": 3379,
            "ugu": 3380,
            "yet": 3381,
            "actor": 3382,
            "annual": 3383,
            "helped": 3384,
            "nearby": 3385,
            "starting": 3386,
            "Chicago": 3387,
            "Texas": 3388,
            "Bob": 3389,
            "Sever": 3390,
            "Tenn": 3391,
            "Tropical": 3392,
            "big": 3393,
            "dark": 3394,
            "gent": 3395,
            "slight": 3396,
            "unable": 3397,
            "atre": 3398,
            "demand": 3399,
            "centre": 3400,
            "polic": 3401,
            "greater": 3402,
            "commander": 3403,
            "schools": 3404,
            "Carolina": 3405,
            "touchdown": 3406,
            "Bow": 3407,
            "Boy": 3408,
            "Latin": 3409,
            "Nix": 3410,
            "hou": 3411,
            "pow": 3412,
            "wing": 3413,
            "attract": 3414,
            "ett": 3415,
            "division": 3416,
            "portray": 3417,
            "College": 3418,
            "Lady": 3419,
            "inspired": 3420,
            "sylvan": 3421,
            "Taylor": 3422,
            "Mill": 3423,
            "Ter": 3424,
            "nis": 3425,
            "enem": 3426,
            "begins": 3427,
            "iva": 3428,
            "advant": 3429,
            "Club": 3430,
            "join": 3431,
            "offered": 3432,
            "sembly": 3433,
            "ox": 3434,
            "ency": 3435,
            "tourn": 3436,
            "acing": 3437,
            "below": 3438,
            "image": 3439,
            "hero": 3440,
            "Storm": 3441,
            "weap": 3442,
            "Alice": 3443,
            "regard": 3444,
            "tracks": 3445,
            "Service": 3446,
            "Highway": 3447,
            "vocals": 3448,
            "Party": 3449,
            "Just": 3450,
            "Live": 3451,
            "park": 3452,
            "pson": 3453,
            "ato": 3454,
            "oration": 3455,
            "chall": 3456,
            "living": 3457,
            "istics": 3458,
            "aware": 3459,
            "possess": 3460,
            "presence": 3461,
            "controver": 3462,
            "onym": 3463,
            "activity": 3464,
            "expand": 3465,
            "Los": 3466,
            "Villa": 3467,
            "ius": 3468,
            "inner": 3469,
            "really": 3470,
            "ican": 3471,
            "issues": 3472,
            "collection": 3473,
            "stitut": 3474,
            "Major": 3475,
            "morning": 3476,
            "target": 3477,
            "immediately": 3478,
            "document": 3479,
            "6th": 3480,
            "lers": 3481,
            "escap": 3482,
            "heav": 3483,
            "confir": 3484,
            "classi": 3485,
            "weight": 3486,
            "Christmas": 3487,
            "Polish": 3488,
            "Center": 3489,
            "Dj": 3490,
            "Jane": 3491,
            "Liver": 3492,
            "border": 3493,
            "crow": 3494,
            "han": 3495,
            "hundred": 3496,
            "itor": 3497,
            "verse": 3498,
            "Three": 3499,
            "itect": 3500,
            "Alkan": 3501,
            "sets": 3502,
            "continue": 3503,
            "promin": 3504,
            "greatest": 3505,
            "attempted": 3506,
            "Georg": 3507,
            "Offic": 3508,
            "figure": 3509,
            "figures": 3510,
            "individual": 3511,
            "strength": 3512,
            "Otto": 3513,
            "Several": 3514,
            "sylvania": 3515,
            "Liverpool": 3516,
            "ering": 3517,
            "step": 3518,
            "beat": 3519,
            "olk": 3520,
            "ulpt": 3521,
            "wealth": 3522,
            "sculpt": 3523,
            "anger": 3524,
            "carry": 3525,
            "Colon": 3526,
            "battalion": 3527,
            "advan": 3528,
            "initial": 3529,
            "Foot": 3530,
            "dollar": 3531,
            "casualties": 3532,
            "Nixon": 3533,
            "Six": 3534,
            "Tre": 3535,
            "ds": 3536,
            "mit": 3537,
            "information": 3538,
            "infantry": 3539,
            "concept": 3540,
            "ump": 3541,
            "div": 3542,
            "peror": 3543,
            "eway": 3544,
            "producer": 3545,
            "Sea": 3546,
            "allowing": 3547,
            "attempts": 3548,
            "extended": 3549,
            "Busch": 3550,
            "44": 3551,
            "Sar": 3552,
            "Sol": 3553,
            "Turn": 3554,
            "batter": 3555,
            "fa": 3556,
            "iel": 3557,
            "ram": 3558,
            "uk": 3559,
            "erset": 3560,
            "ili": 3561,
            "deb": 3562,
            "resc": 3563,
            "abs": 3564,
            "popul": 3565,
            "Australians": 3566,
            "Series": 3567,
            "traditional": 3568,
            "Somerset": 3569,
            "machine": 3570,
            "Ross": 3571,
            "security": 3572,
            "bs": 3573,
            "path": 3574,
            "artist": 3575,
            "except": 3576,
            "acting": 3577,
            "singer": 3578,
            "mium": 3579,
            "services": 3580,
            "presented": 3581,
            "metal": 3582,
            "Soci": 3583,
            "76": 3584,
            "Ca": 3585,
            "Do": 3586,
            "Del": 3587,
            "Fow": 3588,
            "bi": 3589,
            "gal": 3590,
            "rical": 3591,
            "things": 3592,
            "dev": 3593,
            "cting": 3594,
            "composed": 3595,
            "ously": 3596,
            "numerous": 3597,
            "friends": 3598,
            "Jackson": 3599,
            "cruis": 3600,
            "nucle": 3601,
            "situation": 3602,
            "Mosley": 3603,
            "Are": 3604,
            "La": 3605,
            "dated": 3606,
            "marriage": 3607,
            "pil": 3608,
            "inside": 3609,
            "stating": 3610,
            "uries": 3611,
            "oting": 3612,
            "lock": 3613,
            "boy": 3614,
            "standard": 3615,
            "Sovi": 3616,
            "words": 3617,
            "Corps": 3618,
            "responsible": 3619,
            "husband": 3620,
            "AI": 3621,
            "NC": 3622,
            "Nations": 3623,
            "bour": 3624,
            "cé": 3625,
            "za": 3626,
            "selected": 3627,
            "bey": 3628,
            "athan": 3629,
            "something": 3630,
            "highly": 3631,
            "Both": 3632,
            "itting": 3633,
            "Academ": 3634,
            "refused": 3635,
            "stitution": 3636,
            "audience": 3637,
            "Queen": 3638,
            "education": 3639,
            "enjoy": 3640,
            "Pennsylvania": 3641,
            "Group": 3642,
            "Dist": 3643,
            "Jam": 3644,
            "MS": 3645,
            "Rh": 3646,
            "Sam": 3647,
            "Sur": 3648,
            "hic": 3649,
            "kick": 3650,
            "rated": 3651,
            "wal": 3652,
            "Their": 3653,
            "olf": 3654,
            "stra": 3655,
            "assault": 3656,
            "1991": 3657,
            "Anderson": 3658,
            "territory": 3659,
            "Virginia": 3660,
            "heavily": 3661,
            "Games": 3662,
            "Jim": 3663,
            "Museum": 3664,
            "bank": 3665,
            "orders": 3666,
            "web": 3667,
            "struction": 3668,
            "ensity": 3669,
            "inches": 3670,
            "source": 3671,
            "Fowler": 3672,
            "Ill": 3673,
            "gain": 3674,
            "mile": 3675,
            "estival": 3676,
            "bery": 3677,
            "Chris": 3678,
            "owned": 3679,
            "gue": 3680,
            "1992": 3681,
            "drum": 3682,
            "distin": 3683,
            "faced": 3684,
            "ushed": 3685,
            "middle": 3686,
            "viron": 3687,
            "34": 3688,
            "Wel": 3689,
            "defend": 3690,
            "resulted": 3691,
            "Paris": 3692,
            "studies": 3693,
            "reduced": 3694,
            "separate": 3695,
            "respectively": 3696,
            "ding": 3697,
            "fast": 3698,
            "gas": 3699,
            "adium": 3700,
            "utch": 3701,
            "mocr": 3702,
            "shire": 3703,
            "anta": 3704,
            "1990": 3705,
            "genus": 3706,
            "missed": 3707,
            "continues": 3708,
            "divided": 3709,
            "tellig": 3710,
            "concluded": 3711,
            "condoms": 3712,
            "Alex": 3713,
            "Smith": 3714,
            "Ty": 3715,
            "Time": 3716,
            "bid": 3717,
            "agan": 3718,
            "clim": 3719,
            "creation": 3720,
            "means": 3721,
            "dise": 3722,
            "1994": 3723,
            "severe": 3724,
            "150": 3725,
            "1970": 3726,
            "variety": 3727,
            "chester": 3728,
            "organized": 3729,
            "completely": 3730,
            "Miami": 3731,
            "Crit": 3732,
            "drew": 3733,
            "tic": 3734,
            "alys": 3735,
            "arc": 3736,
            "idian": 3737,
            "officer": 3738,
            "headquarters": 3739,
            "sixth": 3740,
            "powerful": 3741,
            "levels": 3742,
            "activities": 3743,
            "Southern": 3744,
            "Cross": 3745,
            "ging": 3746,
            "sides": 3747,
            "andid": 3748,
            "deploy": 3749,
            "ousand": 3750,
            "scoring": 3751,
            "efforts": 3752,
            "viewers": 3753,
            "higher": 3754,
            "offensive": 3755,
            "cathedral": 3756,
            "ribution": 3757,
            "mountain": 3758,
            "cyclone": 3759,
            "wounded": 3760,
            "piano": 3761,
            "Dou": 3762,
            "Ever": 3763,
            "Hum": 3764,
            "Open": 3765,
            "bon": 3766,
            "mouth": 3767,
            "residents": 3768,
            "plant": 3769,
            "log": 3770,
            "managed": 3771,
            "princi": 3772,
            "award": 3773,
            "Jose": 3774,
            "describes": 3775,
            "countries": 3776,
            "Prince": 3777,
            "declared": 3778,
            "blue": 3779,
            "needed": 3780,
            "horse": 3781,
            "parents": 3782,
            "Long": 3783,
            "bury": 3784,
            "nast": 3785,
            "square": 3786,
            "oncé": 3787,
            "alo": 3788,
            "aspect": 3789,
            "isl": 3790,
            "secret": 3791,
            "contemporary": 3792,
            "focus": 3793,
            "mainly": 3794,
            "appearances": 3795,
            "distance": 3796,
            "county": 3797,
            "rights": 3798,
            "Scotland": 3799,
            "meeting": 3800,
            "peaked": 3801,
            "Meridian": 3802,
            "revealed": 3803,
            "impact": 3804,
            "Beyoncé": 3805,
            "Ottoman": 3806,
            "Football": 3807,
            "Che": 3808,
            "Emp": 3809,
            "bing": 3810,
            "cis": 3811,
            "cad": 3812,
            "armed": 3813,
            "essa": 3814,
            "portun": 3815,
            "rane": 3816,
            "conditions": 3817,
            "symb": 3818,
            "featuring": 3819,
            "proteins": 3820,
            "combat": 3821,
            "Histor": 3822,
            "copies": 3823,
            "Green": 3824,
            "Empire": 3825,
            "Civ": 3826,
            "Mem": 3827,
            "Os": 3828,
            "Up": 3829,
            "anas": 3830,
            "today": 3831,
            "itude": 3832,
            "peace": 3833,
            "sole": 3834,
            "actually": 3835,
            "prise": 3836,
            "weaken": 3837,
            "annel": 3838,
            "calling": 3839,
            "background": 3840,
            "rule": 3841,
            "Book": 3842,
            "Meyer": 3843,
            "types": 3844,
            "nuclear": 3845,
            "BA": 3846,
            "Hot": 3847,
            "Wash": 3848,
            "Young": 3849,
            "ón": 3850,
            "inn": 3851,
            "adult": 3852,
            "opin": 3853,
            "true": 3854,
            "elected": 3855,
            "widely": 3856,
            "Captain": 3857,
            "Vietnam": 3858,
            "houses": 3859,
            "Louis": 3860,
            "Washington": 3861,
            "4th": 3862,
            "5th": 3863,
            "Fre": 3864,
            "Tran": 3865,
            "pick": 3866,
            "spl": 3867,
            "ono": 3868,
            "alle": 3869,
            "roles": 3870,
            "semi": 3871,
            "beer": 3872,
            "becomes": 3873,
            "chor": 3874,
            "iron": 3875,
            "opportun": 3876,
            "quality": 3877,
            "attention": 3878,
            "flank": 3879,
            "tower": 3880,
            "Like": 3881,
            "relief": 3882,
            "Italian": 3883,
            "Lan": 3884,
            "Water": 3885,
            "mat": 3886,
            "pul": 3887,
            "ti": 3888,
            "vation": 3889,
            "university": 3890,
            "strated": 3891,
            "grand": 3892,
            "vised": 3893,
            "invas": 3894,
            "royal": 3895,
            "explo": 3896,
            "primarily": 3897,
            "deliver": 3898,
            "Welsh": 3899,
            "7th": 3900,
            "Nico": 3901,
            "Out": 3902,
            "brown": 3903,
            "federal": 3904,
            "jun": 3905,
            "lb": 3906,
            "vehic": 3907,
            "concent": 3908,
            "architect": 3909,
            "strugg": 3910,
            "capture": 3911,
            "sites": 3912,
            "Richmond": 3913,
            "typically": 3914,
            "sexual": 3915,
            "trees": 3916,
            "Government": 3917,
            "Prote": 3918,
            "eu": 3919,
            "nic": 3920,
            "incorpor": 3921,
            "mole": 3922,
            "affected": 3923,
            "shell": 3924,
            "observed": 3925,
            "thens": 3926,
            "reception": 3927,
            "tainment": 3928,
            "alongside": 3929,
            "Because": 3930,
            "hands": 3931,
            "historical": 3932,
            "combined": 3933,
            "vocal": 3934,
            "extensive": 3935,
            "photo": 3936,
            "contrast": 3937,
            "Hawai": 3938,
            "slightly": 3939,
            "9th": 3940,
            "Kent": 3941,
            "Sto": 3942,
            "Sir": 3943,
            "tax": 3944,
            "ancient": 3945,
            "eval": 3946,
            "write": 3947,
            "defense": 3948,
            "southeast": 3949,
            "Churchill": 3950,
            "question": 3951,
            "Civil": 3952,
            "Tod": 3953,
            "paid": 3954,
            "paper": 3955,
            "voy": 3956,
            "1920": 3957,
            "serve": 3958,
            "Minnes": 3959,
            "mentioned": 3960,
            "Minnesota": 3961,
            "Big": 3962,
            "Hom": 3963,
            "Kore": 3964,
            "Little": 3965,
            "corn": 3966,
            "hanna": 3967,
            "sense": 3968,
            "ufact": 3969,
            "rect": 3970,
            "ements": 3971,
            "expressed": 3972,
            "iving": 3973,
            "charge": 3974,
            "produce": 3975,
            "1986": 3976,
            "defence": 3977,
            "Braa": 3978,
            "Society": 3979,
            "Dire": 3980,
            "Fur": 3981,
            "dition": 3982,
            "rhy": 3983,
            "sa": 3984,
            "wear": 3985,
            "xenon": 3986,
            "iny": 3987,
            "sec": 3988,
            "eves": 3989,
            "180": 3990,
            "visions": 3991,
            "showed": 3992,
            "resulting": 3993,
            "extreme": 3994,
            "Week": 3995,
            "initi": 3996,
            "arent": 3997,
            "practice": 3998,
            "vironment": 3999,
            "Met": 4000,
            "Ocean": 4001,
            "Sal": 4002,
            "Van": 4003,
            "cam": 4004,
            "carri": 4005,
            "ners": 4006,
            "rich": 4007,
            "repe": 4008,
            "ensi": 4009,
            "agg": 4010,
            "boats": 4011,
            "ledge": 4012,
            "designated": 4013,
            "Mean": 4014,
            "window": 4015,
            "Missis": 4016,
            "represented": 4017,
            "blood": 4018,
            "officials": 4019,
            "ricket": 4020,
            "accepted": 4021,
            "sippi": 4022,
            "evolution": 4023,
            "twenty": 4024,
            "advantage": 4025,
            "Mississippi": 4026,
            "Form": 4027,
            "mist": 4028,
            "pun": 4029,
            "rum": 4030,
            "scient": 4031,
            "alleg": 4032,
            "ils": 4033,
            "akapo": 4034,
            "Though": 4035,
            "effort": 4036,
            "struck": 4037,
            "cannot": 4038,
            "founded": 4039,
            "inkel": 4040,
            "organization": 4041,
            "Spain": 4042,
            "surrounding": 4043,
            "Cast": 4044,
            "Four": 4045,
            "Jul": 4046,
            "mes": 4047,
            "thousand": 4048,
            "replac": 4049,
            "reaction": 4050,
            "alone": 4051,
            "itness": 4052,
            "excl": 4053,
            "perman": 4054,
            "color": 4055,
            "colour": 4056,
            "broken": 4057,
            "Post": 4058,
            "Townsend": 4059,
            "achieved": 4060,
            "Rosebery": 4061,
            "relatively": 4062,
            "Bur": 4063,
            "mob": 4064,
            "estic": 4065,
            "rance": 4066,
            "Commun": 4067,
            "Leg": 4068,
            "passing": 4069,
            "northwest": 4070,
            "protest": 4071,
            "Simpson": 4072,
            "Walpole": 4073,
            "Illino": 4074,
            "Adam": 4075,
            "Finkel": 4076,
            "Pen": 4077,
            "Sen": 4078,
            "Tim": 4079,
            "winter": 4080,
            "sust": 4081,
            "district": 4082,
            "artists": 4083,
            "worth": 4084,
            "seasons": 4085,
            "captain": 4086,
            "1988": 4087,
            "identified": 4088,
            "succeed": 4089,
            "Johnson": 4090,
            "battles": 4091,
            "titles": 4092,
            "says": 4093,
            "looking": 4094,
            "Academy": 4095,
            "Meyerbeer": 4096,
            "Finkelstein": 4097,
            "Cal": 4098,
            "Tessa": 4099,
            "cities": 4100,
            "hi": 4101,
            "kes": 4102,
            "instr": 4103,
            "recomm": 4104,
            "ications": 4105,
            "chief": 4106,
            "ression": 4107,
            "comedy": 4108,
            "lif": 4109,
            "neigh": 4110,
            "spread": 4111,
            "Thunder": 4112,
            "scale": 4113,
            "forest": 4114,
            "athus": 4115,
            "athlet": 4116,
            "doing": 4117,
            "diff": 4118,
            "Shiva": 4119,
            "basis": 4120,
            "apparent": 4121,
            "street": 4122,
            "Blue": 4123,
            "newspaper": 4124,
            "Field": 4125,
            "Home": 4126,
            "Ven": 4127,
            "Yue": 4128,
            "cers": 4129,
            "nown": 4130,
            "sci": 4131,
            "delay": 4132,
            "Indu": 4133,
            "odon": 4134,
            "preser": 4135,
            "older": 4136,
            "themes": 4137,
            "hood": 4138,
            "reports": 4139,
            "Class": 4140,
            "authorities": 4141,
            "Turner": 4142,
            "Rhodes": 4143,
            "alysis": 4144,
            "Nicole": 4145,
            "Fred": 4146,
            "MD": 4147,
            "Rad": 4148,
            "Tele": 4149,
            "repair": 4150,
            "exhib": 4151,
            "avoid": 4152,
            "pret": 4153,
            "spect": 4154,
            "Secret": 4155,
            "specim": 4156,
            "Manchester": 4157,
            "shortly": 4158,
            "Andrew": 4159,
            "dedicated": 4160,
            "transferred": 4161,
            "Angeles": 4162,
            "kilomet": 4163,
            "girl": 4164,
            "Soviet": 4165,
            "Bet": 4166,
            "folk": 4167,
            "hed": 4168,
            "wa": 4169,
            "wild": 4170,
            "thir": 4171,
            "chair": 4172,
            "ols": 4173,
            "abama": 4174,
            "boat": 4175,
            "18th": 4176,
            "contact": 4177,
            "guest": 4178,
            "finals": 4179,
            "Alabama": 4180,
            "Engine": 4181,
            "officially": 4182,
            "passes": 4183,
            "tried": 4184,
            "titled": 4185,
            "Francis": 4186,
            "AAF": 4187,
            "flooding": 4188,
            "commissioned": 4189,
            "Braathens": 4190,
            "42": 4191,
            "Ben": 4192,
            "Bond": 4193,
            "Def": 4194,
            "Produ": 4195,
            "cere": 4196,
            "sales": 4197,
            "ero": 4198,
            "die": 4199,
            "tru": 4200,
            "manufact": 4201,
            "fiction": 4202,
            "pedo": 4203,
            "structures": 4204,
            "Origin": 4205,
            "floor": 4206,
            "Hait": 4207,
            "Apple": 4208,
            "occasion": 4209,
            "excav": 4210,
            "Horse": 4211,
            "adopted": 4212,
            "Temple": 4213,
            "Records": 4214,
            "ultimately": 4215,
            "97": 4216,
            "Nes": 4217,
            "itation": 4218,
            "oppon": 4219,
            "movie": 4220,
            "losing": 4221,
            "attended": 4222,
            "anning": 4223,
            "1960s": 4224,
            "sister": 4225,
            "ressed": 4226,
            "protein": 4227,
            "Portugu": 4228,
            "cultural": 4229,
            "freeway": 4230,
            "financial": 4231,
            "Fleet": 4232,
            "Portuguese": 4233,
            "46": 4234,
            "65": 4235,
            "Ram": 4236,
            "hu": 4237,
            "intellig": 4238,
            "edition": 4239,
            "rem": 4240,
            "toward": 4241,
            "height": 4242,
            "advert": 4243,
            "umn": 4244,
            "mechan": 4245,
            "News": 4246,
            "helm": 4247,
            "direction": 4248,
            "society": 4249,
            "earliest": 4250,
            "Lar": 4251,
            "Way": 4252,
            "alty": 4253,
            "tomb": 4254,
            "ems": 4255,
            "grass": 4256,
            "workers": 4257,
            "suppl": 4258,
            "Marine": 4259,
            "Fey": 4260,
            "successfully": 4261,
            "influenced": 4262,
            "potential": 4263,
            "disease": 4264,
            "candid": 4265,
            "naval": 4266,
            "rating": 4267,
            "tank": 4268,
            "vince": 4269,
            "yellow": 4270,
            "proved": 4271,
            "raid": 4272,
            "1980s": 4273,
            "transl": 4274,
            "Conf": 4275,
            "defensive": 4276,
            "couple": 4277,
            "torpedo": 4278,
            "Middle": 4279,
            "Operation": 4280,
            "determined": 4281,
            "nasty": 4282,
            "Illinois": 4283,
            "Bu": 4284,
            "Er": 4285,
            "Fam": 4286,
            "Zhou": 4287,
            "your": 4288,
            "zed": 4289,
            "reign": 4290,
            "atives": 4291,
            "resh": 4292,
            "Alli": 4293,
            "obtain": 4294,
            "Democr": 4295,
            "1940": 4296,
            "legisl": 4297,
            "causing": 4298,
            "personnel": 4299,
            "pieces": 4300,
            "install": 4301,
            "95": 4302,
            "Mog": 4303,
            "pup": 4304,
            "lives": 4305,
            "emphas": 4306,
            "fired": 4307,
            "bute": 4308,
            "Assembly": 4309,
            "1985": 4310,
            "vessel": 4311,
            "management": 4312,
            "soundtrack": 4313,
            "function": 4314,
            "individuals": 4315,
            "fruit": 4316,
            "ceremon": 4317,
            "Bul": 4318,
            "Dam": 4319,
            "Ox": 4320,
            "Tint": 4321,
            "bin": 4322,
            "bat": 4323,
            "cat": 4324,
            "dut": 4325,
            "lane": 4326,
            "án": 4327,
            "ada": 4328,
            "actors": 4329,
            "follows": 4330,
            "maxim": 4331,
            "leader": 4332,
            "1964": 4333,
            "sources": 4334,
            "physical": 4335,
            "Olympic": 4336,
            "Varanas": 4337,
            "onymous": 4338,
            "invasion": 4339,
            "Tintin": 4340,
            "Varanasi": 4341,
            "Burn": 4342,
            "Night": 4343,
            "Pit": 4344,
            "bitt": 4345,
            "lap": 4346,
            "encour": 4347,
            "seek": 4348,
            "contain": 4349,
            "require": 4350,
            "castle": 4351,
            "frag": 4352,
            "Team": 4353,
            "behavi": 4354,
            "consisted": 4355,
            "honor": 4356,
            "eye": 4357,
            "Eva": 4358,
            "narrow": 4359,
            "Nesbitt": 4360,
            "Bol": 4361,
            "Oda": 4362,
            "fil": 4363,
            "gained": 4364,
            "kept": 4365,
            "mess": 4366,
            "ror": 4367,
            "sac": 4368,
            "revol": 4369,
            "enathus": 4370,
            "oud": 4371,
            "entrance": 4372,
            "ulated": 4373,
            "shr": 4374,
            "illu": 4375,
            "premi": 4376,
            "temple": 4377,
            "brigade": 4378,
            "gency": 4379,
            "operated": 4380,
            "roads": 4381,
            "1970s": 4382,
            "results": 4383,
            "letter": 4384,
            "letters": 4385,
            "Forest": 4386,
            "planet": 4387,
            "mounted": 4388,
            "Edward": 4389,
            "favour": 4390,
            "possibly": 4391,
            "journal": 4392,
            "Ceres": 4393,
            "abandoned": 4394,
            "schedul": 4395,
            "necessary": 4396,
            "tournament": 4397,
            "Odaenathus": 4398,
            "SR": 4399,
            "ban": 4400,
            "nom": 4401,
            "patter": 4402,
            "arrest": 4403,
            "unknown": 4404,
            "dete": 4405,
            "verted": 4406,
            "otional": 4407,
            "ordin": 4408,
            "content": 4409,
            "rict": 4410,
            "visited": 4411,
            "phen": 4412,
            "Reception": 4413,
            "Commission": 4414,
            "Americans": 4415,
            "1987": 4416,
            "hospital": 4417,
            "places": 4418,
            "simply": 4419,
            "suggests": 4420,
            "criticized": 4421,
            "spirit": 4422,
            "measure": 4423,
            "DuMont": 4424,
            "seems": 4425,
            "prominent": 4426,
            "Sarnia": 4427,
            "District": 4428,
            "kilometres": 4429,
            "64": 4430,
            "BBC": 4431,
            "Gi": 4432,
            "eigh": 4433,
            "farm": 4434,
            "ker": 4435,
            "paint": 4436,
            "wave": 4437,
            "stock": 4438,
            "arms": 4439,
            "rot": 4440,
            "adel": 4441,
            "else": 4442,
            "opposed": 4443,
            "shap": 4444,
            "shape": 4445,
            "intensity": 4446,
            "foreign": 4447,
            "door": 4448,
            "Bridge": 4449,
            "domestic": 4450,
            "grew": 4451,
            "Clark": 4452,
            "authority": 4453,
            "pursu": 4454,
            "doub": 4455,
            "enemy": 4456,
            "confirmed": 4457,
            "Joseph": 4458,
            "Meanwhile": 4459,
            "600": 4460,
            "Fant": 4461,
            "aj": 4462,
            "gam": 4463,
            "lic": 4464,
            "rative": 4465,
            "uzz": 4466,
            "energy": 4467,
            "images": 4468,
            "lip": 4469,
            "shore": 4470,
            "extra": 4471,
            "perial": 4472,
            "foc": 4473,
            "iple": 4474,
            "spot": 4475,
            "dissip": 4476,
            "osen": 4477,
            "orses": 4478,
            "albums": 4479,
            "1984": 4480,
            "Wilhelm": 4481,
            "cases": 4482,
            "Eastern": 4483,
            "rainfall": 4484,
            "walls": 4485,
            "argued": 4486,
            "Background": 4487,
            "moment": 4488,
            "negative": 4489,
            "Mogad": 4490,
            "DV": 4491,
            "Di": 4492,
            "Dis": 4493,
            "Public": 4494,
            "cies": 4495,
            "hill": 4496,
            "kg": 4497,
            "kakapo": 4498,
            "union": 4499,
            "unique": 4500,
            "environment": 4501,
            "oft": 4502,
            "heart": 4503,
            "academ": 4504,
            "seg": 4505,
            "artic": 4506,
            "seconds": 4507,
            "killing": 4508,
            "reference": 4509,
            "religion": 4510,
            "employed": 4511,
            "Valley": 4512,
            "homes": 4513,
            "osaurus": 4514,
            "equipment": 4515,
            "DVD": 4516,
            "51": 4517,
            "Far": 4518,
            "Jour": 4519,
            "Sil": 4520,
            "Sch": 4521,
            "fought": 4522,
            "spring": 4523,
            "wick": 4524,
            "onic": 4525,
            "elim": 4526,
            "containing": 4527,
            "weak": 4528,
            "rence": 4529,
            "1941": 4530,
            "trial": 4531,
            "depth": 4532,
            "reaching": 4533,
            "claims": 4534,
            "buried": 4535,
            "gradu": 4536,
            "Scottish": 4537,
            "cadmium": 4538,
            "science": 4539,
            "53": 4540,
            "Jup": 4541,
            "Oma": 4542,
            "branch": 4543,
            "dro": 4544,
            "dates": 4545,
            "ovic": 4546,
            "alions": 4547,
            "consecut": 4548,
            "uten": 4549,
            "Independ": 4550,
            "shif": 4551,
            "timore": 4552,
            "condition": 4553,
            "calls": 4554,
            "1947": 4555,
            "Short": 4556,
            "promoted": 4557,
            "broke": 4558,
            "growing": 4559,
            "connected": 4560,
            "currently": 4561,
            "rapidly": 4562,
            "website": 4563,
            "Further": 4564,
            "maximum": 4565,
            "Omaha": 4566,
            "eth": 4567,
            "fung": 4568,
            "museum": 4569,
            "tact": 4570,
            "inth": 4571,
            "rear": 4572,
            "belong": 4573,
            "exped": 4574,
            "twice": 4575,
            "controlled": 4576,
            "prompt": 4577,
            "holds": 4578,
            "graphic": 4579,
            "debuted": 4580,
            "collap": 4581,
            "Helms": 4582,
            "granted": 4583,
            "settlement": 4584,
            "Oxford": 4585,
            "Gall": 4586,
            "Pop": 4587,
            "bul": 4588,
            "fish": 4589,
            "fair": 4590,
            "governor": 4591,
            "tun": 4592,
            "wen": 4593,
            "thr": 4594,
            "rejected": 4595,
            "ises": 4596,
            "lying": 4597,
            "ishu": 4598,
            "finish": 4599,
            "phil": 4600,
            "normal": 4601,
            "colony": 4602,
            "1989": 4603,
            "famous": 4604,
            "explained": 4605,
            "Perón": 4606,
            "Airport": 4607,
            "projects": 4608,
            "PlayStation": 4609,
            "economic": 4610,
            "Russian": 4611,
            "pounds": 4612,
            "Bowl": 4613,
            "weapons": 4614,
            "Mogadishu": 4615,
            "120": 4616,
            "Der": 4617,
            "Due": 4618,
            "Ly": 4619,
            "Mat": 4620,
            "catch": 4621,
            "dict": 4622,
            "happ": 4623,
            "smo": 4624,
            "chosen": 4625,
            "resol": 4626,
            "plat": 4627,
            "propos": 4628,
            "Innis": 4629,
            "iana": 4630,
            "aust": 4631,
            "newly": 4632,
            "phy": 4633,
            "therefore": 4634,
            "1942": 4635,
            "asket": 4636,
            "systems": 4637,
            "travel": 4638,
            "Palest": 4639,
            "consecutive": 4640,
            "43": 4641,
            "Dest": 4642,
            "Horn": 4643,
            "Naz": 4644,
            "laid": 4645,
            "mort": 4646,
            "unte": 4647,
            "arrang": 4648,
            "share": 4649,
            "herself": 4650,
            "landing": 4651,
            "Head": 4652,
            "Ann": 4653,
            "speak": 4654,
            "aired": 4655,
            "regions": 4656,
            "Argent": 4657,
            "views": 4658,
            "insula": 4659,
            "1972": 4660,
            "Cardiff": 4661,
            "supporting": 4662,
            "Minister": 4663,
            "animal": 4664,
            "flying": 4665,
            "injury": 4666,
            "independent": 4667,
            "Baltimore": 4668,
            "Jupiter": 4669,
            "Cre": 4670,
            "HMS": 4671,
            "Lew": 4672,
            "kare": 4673,
            "ridge": 4674,
            "squadron": 4675,
            "imony": 4676,
            "usual": 4677,
            "resist": 4678,
            "mind": 4679,
            "Once": 4680,
            "1960": 4681,
            "plement": 4682,
            "returning": 4683,
            "solo": 4684,
            "knowledge": 4685,
            "prepared": 4686,
            "happen": 4687,
            "McCall": 4688,
            "advanced": 4689,
            "Even": 4690,
            "Writ": 4691,
            "ahead": 4692,
            "restrict": 4693,
            "ingu": 4694,
            "sections": 4695,
            "prop": 4696,
            "neut": 4697,
            "contributed": 4698,
            "phia": 4699,
            "1990s": 4700,
            "singing": 4701,
            "singles": 4702,
            "Conference": 4703,
            "council": 4704,
            "versions": 4705,
            "Fox": 4706,
            "growth": 4707,
            "experienced": 4708,
            "Hamels": 4709,
            "victim": 4710,
            "selling": 4711,
            "Rihanna": 4712,
            "adelphia": 4713,
            "Avenue": 4714,
            "Cra": 4715,
            "Greek": 4716,
            "Kh": 4717,
            "hang": 4718,
            "matter": 4719,
            "analysis": 4720,
            "stood": 4721,
            "assass": 4722,
            "supply": 4723,
            "Before": 4724,
            "Isa": 4725,
            "Addition": 4726,
            "Mounted": 4727,
            "believe": 4728,
            "Mike": 4729,
            "collabor": 4730,
            "multiple": 4731,
            "nominated": 4732,
            "96": 4733,
            "Bank": 4734,
            "CA": 4735,
            "Dutch": 4736,
            "Lis": 4737,
            "Tru": 4738,
            "ares": 4739,
            "bud": 4740,
            "edkare": 4741,
            "beach": 4742,
            "chance": 4743,
            "agement": 4744,
            "otes": 4745,
            "loy": 4746,
            "crete": 4747,
            "weather": 4748,
            "rend": 4749,
            "writes": 4750,
            "More": 4751,
            "km2": 4752,
            "organis": 4753,
            "student": 4754,
            "dropped": 4755,
            "occupied": 4756,
            "increasingly": 4757,
            "Djedkare": 4758,
            "Each": 4759,
            "Native": 4760,
            "Ob": 4761,
            "mical": 4762,
            "sought": 4763,
            "tur": 4764,
            "thur": 4765,
            "accompan": 4766,
            "ilies": 4767,
            "decre": 4768,
            "oppos": 4769,
            "umber": 4770,
            "ultural": 4771,
            "retired": 4772,
            "Arthur": 4773,
            "appeal": 4774,
            "1981": 4775,
            "1944": 4776,
            "Constant": 4777,
            "ushing": 4778,
            "layer": 4779,
            "problem": 4780,
            "maintained": 4781,
            "Torres": 4782,
            "failure": 4783,
            "frequently": 4784,
            "temperature": 4785,
            "Baby": 4786,
            "Hib": 4787,
            "din": 4788,
            "pack": 4789,
            "seas": 4790,
            "champion": 4791,
            "contest": 4792,
            "los": 4793,
            "perfect": 4794,
            "Child": 4795,
            "intensi": 4796,
            "commonly": 4797,
            "filmed": 4798,
            "serving": 4799,
            "domin": 4800,
            "agreement": 4801,
            "teenth": 4802,
            "borough": 4803,
            "cells": 4804,
            "incident": 4805,
            "model": 4806,
            "Among": 4807,
            "41": 4808,
            "Bir": 4809,
            "Gord": 4810,
            "Jon": 4811,
            "Line": 4812,
            "Never": 4813,
            "Rol": 4814,
            "cited": 4815,
            "pict": 4816,
            "sand": 4817,
            "uan": 4818,
            "witness": 4819,
            "zer": 4820,
            "asc": 4821,
            "asure": 4822,
            "iments": 4823,
            "tex": 4824,
            "proceed": 4825,
            "Institute": 4826,
            "quake": 4827,
            "strate": 4828,
            "fox": 4829,
            "ached": 4830,
            "contained": 4831,
            "Only": 4832,
            "advent": 4833,
            "popularity": 4834,
            "historic": 4835,
            "historian": 4836,
            "significantly": 4837,
            "Philadelphia": 4838,
            "drive": 4839,
            "launch": 4840,
            "Egyptian": 4841,
            "haps": 4842,
            "literature": 4843,
            "Applewhite": 4844,
            "scheduled": 4845,
            "Gordon": 4846,
            "56": 4847,
            "Jef": 4848,
            "Lock": 4849,
            "Sky": 4850,
            "mic": 4851,
            "males": 4852,
            "ores": 4853,
            "rise": 4854,
            "ule": 4855,
            "recon": 4856,
            "imag": 4857,
            "convent": 4858,
            "rival": 4859,
            "actress": 4860,
            "Chap": 4861,
            "compar": 4862,
            "Anth": 4863,
            "description": 4864,
            "passeng": 4865,
            "marks": 4866,
            "missions": 4867,
            "declined": 4868,
            "industri": 4869,
            "Williams": 4870,
            "System": 4871,
            "sports": 4872,
            "property": 4873,
            "Gulf": 4874,
            "sustained": 4875,
            "55": 4876,
            "Den": 4877,
            "GA": 4878,
            "Ka": 4879,
            "Kar": 4880,
            "Vide": 4881,
            "bass": 4882,
            "bility": 4883,
            "bishop": 4884,
            "ec": 4885,
            "govern": 4886,
            "horses": 4887,
            "ires": 4888,
            "tional": 4889,
            "theory": 4890,
            "theless": 4891,
            "edar": 4892,
            "lection": 4893,
            "chose": 4894,
            "rie": 4895,
            "train": 4896,
            "ranged": 4897,
            "osop": 4898,
            "flag": 4899,
            "element": 4900,
            "medical": 4901,
            "publish": 4902,
            "1965": 4903,
            "ideas": 4904,
            "risk": 4905,
            "Steve": 4906,
            "reflect": 4907,
            "strike": 4908,
            "seventh": 4909,
            "suffic": 4910,
            "improve": 4911,
            "urban": 4912,
            "belief": 4913,
            "filled": 4914,
            "policy": 4915,
            "Allied": 4916,
            "utenant": 4917,
            "700": 4918,
            "FE": 4919,
            "Good": 4920,
            "Rail": 4921,
            "dan": 4922,
            "sail": 4923,
            "ert": 4924,
            "eds": 4925,
            "heard": 4926,
            "agent": 4927,
            "extr": 4928,
            "coal": 4929,
            "attend": 4930,
            "ansas": 4931,
            "Develop": 4932,
            "starts": 4933,
            "publication": 4934,
            "subsequent": 4935,
            "SAFE": 4936,
            "Swed": 4937,
            "phase": 4938,
            "Croatia": 4939,
            "Today": 4940,
            "Bart": 4941,
            "Card": 4942,
            "Down": 4943,
            "NH": 4944,
            "SP": 4945,
            "Sup": 4946,
            "Tu": 4947,
            "oil": 4948,
            "task": 4949,
            "yle": 4950,
            "thew": 4951,
            "atmo": 4952,
            "stations": 4953,
            "iles": 4954,
            "deities": 4955,
            "agric": 4956,
            "Stan": 4957,
            "creating": 4958,
            "ween": 4959,
            "izing": 4960,
            "highlight": 4961,
            "parliament": 4962,
            "servation": 4963,
            "breeding": 4964,
            "Andy": 4965,
            "Barrow": 4966,
            "females": 4967,
            "rossing": 4968,
            "participated": 4969,
            "scholar": 4970,
            "crowd": 4971,
            "battery": 4972,
            "straight": 4973,
            "Between": 4974,
            "budget": 4975,
            "atmosp": 4976,
            "Asia": 4977,
            "Five": 4978,
            "Sum": 4979,
            "cust": 4980,
            "gather": 4981,
            "master": 4982,
            "ras": 4983,
            "icip": 4984,
            "beaut": 4985,
            "lythe": 4986,
            "conve": 4987,
            "1918": 4988,
            "awards": 4989,
            "note": 4990,
            "Italy": 4991,
            "disp": 4992,
            "minim": 4993,
            "crim": 4994,
            "17th": 4995,
            "ologist": 4996,
            "headed": 4997,
            "families": 4998,
            "fields": 4999,
            "allows": 5000,
            "volume": 5001,
            "Philip": 5002,
            "burns": 5003,
            "recently": 5004,
            "Congress": 5005,
            "responded": 5006,
            "bottom": 5007,
            "Entertainment": 5008,
            "Abu": 5009,
            "Pan": 5010,
            "cricket": 5011,
            "daily": 5012,
            "tree": 5013,
            "iced": 5014,
            "notable": 5015,
            "firm": 5016,
            "evin": 5017,
            "evil": 5018,
            "sions": 5019,
            "1968": 5020,
            "southwest": 5021,
            "promotion": 5022,
            "1939": 5023,
            "Steven": 5024,
            "facilities": 5025,
            "collected": 5026,
            "Max": 5027,
            "People": 5028,
            "aurus": 5029,
            "Mountain": 5030,
            "strengthen": 5031,
            "purchased": 5032,
            "shaped": 5033,
            "Video": 5034,
            "Fall": 5035,
            "Greg": 5036,
            "Han": 5037,
            "IV": 5038,
            "Mario": 5039,
            "Nathan": 5040,
            "Press": 5041,
            "labor": 5042,
            "rig": 5043,
            "encounter": 5044,
            "outer": 5045,
            "concrete": 5046,
            "composition": 5047,
            "prot": 5048,
            "Album": 5049,
            "paralle": 5050,
            "opera": 5051,
            "simple": 5052,
            "Keats": 5053,
            "animals": 5054,
            "losses": 5055,
            "recognized": 5056,
            "multi": 5057,
            "Ali": 5058,
            "Band": 5059,
            "Eli": 5060,
            "Fl": 5061,
            "Final": 5062,
            "Festival": 5063,
            "Governor": 5064,
            "Hart": 5065,
            "Lie": 5066,
            "Men": 5067,
            "Mass": 5068,
            "Revolution": 5069,
            "RAAF": 5070,
            "Si": 5071,
            "dance": 5072,
            "oth": 5073,
            "tin": 5074,
            "tav": 5075,
            "ening": 5076,
            "stages": 5077,
            "altar": 5078,
            "assu": 5079,
            "ully": 5080,
            "compr": 5081,
            "landfall": 5082,
            "roughly": 5083,
            "regarded": 5084,
            "capable": 5085,
            "restaur": 5086,
            "value": 5087,
            "turns": 5088,
            "humans": 5089,
            "Admir": 5090,
            "effective": 5091,
            "finding": 5092,
            "entirely": 5093,
            "improved": 5094,
            "senior": 5095,
            "1950s": 5096,
            "Turk": 5097,
            "pitched": 5098,
            "Martin": 5099,
            "Lewis": 5100,
            "130": 5101,
            "8th": 5102,
            "Gard": 5103,
            "Slam": 5104,
            "Ve": 5105,
            "map": 5106,
            "rac": 5107,
            "tack": 5108,
            "tail": 5109,
            "onom": 5110,
            "acres": 5111,
            "afety": 5112,
            "awa": 5113,
            "setting": 5114,
            "secondary": 5115,
            "12th": 5116,
            "1966": 5117,
            "Boston": 5118,
            "kills": 5119,
            "holding": 5120,
            "namese": 5121,
            "Vietnamese": 5122,
            "slowly": 5123,
            "executive": 5124,
            "Premi": 5125,
            "adapt": 5126,
            "Victoria": 5127,
            "challeng": 5128,
            "expanded": 5129,
            "aspects": 5130,
            "94": 5131,
            "AD": 5132,
            "Cy": 5133,
            "Cle": 5134,
            "Dun": 5135,
            "Nich": 5136,
            "NBA": 5137,
            "Well": 5138,
            "data": 5139,
            "ech": 5140,
            "fat": 5141,
            "onna": 5142,
            "isy": 5143,
            "convoy": 5144,
            "computer": 5145,
            "render": 5146,
            "Also": 5147,
            "angers": 5148,
            "producers": 5149,
            "sses": 5150,
            "submar": 5151,
            "1975": 5152,
            "organiz": 5153,
            "rivers": 5154,
            "cougar": 5155,
            "gradually": 5156,
            "Magazine": 5157,
            "goti": 5158,
            "virt": 5159,
            "Cambodi": 5160,
            "Area": 5161,
            "remn": 5162,
            "Friend": 5163,
            "Gir": 5164,
            "Mort": 5165,
            "Sor": 5166,
            "bb": 5167,
            "fare": 5168,
            "gree": 5169,
            "nur": 5170,
            "save": 5171,
            "var": 5172,
            "isol": 5173,
            "roof": 5174,
            "championship": 5175,
            "degree": 5176,
            "moves": 5177,
            "emperor": 5178,
            "Stone": 5179,
            "centuries": 5180,
            "underground": 5181,
            "End": 5182,
            "arrival": 5183,
            "engaged": 5184,
            "1974": 5185,
            "Brig": 5186,
            "1969": 5187,
            "clean": 5188,
            "ashion": 5189,
            "distingu": 5190,
            "dominated": 5191,
            "lasted": 5192,
            "gives": 5193,
            "frame": 5194,
            "burg": 5195,
            "trait": 5196,
            "treatment": 5197,
            "independence": 5198,
            "Throughout": 5199,
            "beyond": 5200,
            "Dougl": 5201,
            "800": 5202,
            "Bas": 5203,
            "Haven": 5204,
            "NL": 5205,
            "Pho": 5206,
            "UN": 5207,
            "Upon": 5208,
            "eas": 5209,
            "fit": 5210,
            "remix": 5211,
            "acu": 5212,
            "ental": 5213,
            "lywood": 5214,
            "wides": 5215,
            "brary": 5216,
            "monument": 5217,
            "Coast": 5218,
            "adding": 5219,
            "1980": 5220,
            "1971": 5221,
            "heads": 5222,
            "Color": 5223,
            "Project": 5224,
            "purpose": 5225,
            "ruled": 5226,
            "performing": 5227,
            "possibility": 5228,
            "Studios": 5229,
            "nucleus": 5230,
            "philosop": 5231,
            "accompanied": 5232,
            "Ath": 5233,
            "Ban": 5234,
            "Fish": 5235,
            "Op": 5236,
            "Ry": 5237,
            "SB": 5238,
            "Sund": 5239,
            "fresh": 5240,
            "glo": 5241,
            "hroom": 5242,
            "rey": 5243,
            "seat": 5244,
            "ura": 5245,
            "Theatre": 5246,
            "abo": 5247,
            "negoti": 5248,
            "acts": 5249,
            "aved": 5250,
            "miner": 5251,
            "Joe": 5252,
            "mushroom": 5253,
            "leaders": 5254,
            "decades": 5255,
            "azz": 5256,
            "battalions": 5257,
            "sentence": 5258,
            "deaths": 5259,
            "apping": 5260,
            "criticism": 5261,
            "settlers": 5262,
            "accident": 5263,
            "progress": 5264,
            "silver": 5265,
            "Thunderbirds": 5266,
            "Athlet": 5267,
            "3D": 5268,
            "Blo": 5269,
            "CE": 5270,
            "Cold": 5271,
            "Oh": 5272,
            "Ret": 5273,
            "basket": 5274,
            "dream": 5275,
            "egg": 5276,
            "hunt": 5277,
            "sort": 5278,
            "tend": 5279,
            "edding": 5280,
            "stable": 5281,
            "iding": 5282,
            "aine": 5283,
            "umes": 5284,
            "illo": 5285,
            "cool": 5286,
            "fictional": 5287,
            "nov": 5288,
            "guan": 5289,
            "guard": 5290,
            "Arts": 5291,
            "draft": 5292,
            "160": 5293,
            "1973": 5294,
            "trying": 5295,
            "Boise": 5296,
            "protect": 5297,
            "worldwide": 5298,
            "importance": 5299,
            "finds": 5300,
            "decline": 5301,
            "programs": 5302,
            "consists": 5303,
            "predict": 5304,
            "stopped": 5305,
            "briefly": 5306,
            "classified": 5307,
            "populations": 5308,
            "Production": 5309,
            "intelligence": 5310,
            "Mic": 5311,
            "PA": 5312,
            "Sus": 5313,
            "bought": 5314,
            "ote": 5315,
            "ange": 5316,
            "revi": 5317,
            "atop": 5318,
            "ented": 5319,
            "1919": 5320,
            "1914": 5321,
            "expen": 5322,
            "astic": 5323,
            "qual": 5324,
            "pread": 5325,
            "prefer": 5326,
            "goes": 5327,
            "filming": 5328,
            "drama": 5329,
            "viewed": 5330,
            "1946": 5331,
            "didn": 5332,
            "college": 5333,
            "Muslim": 5334,
            "reasons": 5335,
            "Crazy": 5336,
            "Turkish": 5337,
            "110": 5338,
            "Bono": 5339,
            "Kir": 5340,
            "Ni": 5341,
            "Ron": 5342,
            "Ul": 5343,
            "cake": 5344,
            "dating": 5345,
            "gs": 5346,
            "ying": 5347,
            "esc": 5348,
            "items": 5349,
            "advis": 5350,
            "aret": 5351,
            "fication": 5352,
            "awn": 5353,
            "presents": 5354,
            "preci": 5355,
            "interchange": 5356,
            "visible": 5357,
            "icks": 5358,
            "longest": 5359,
            "receiving": 5360,
            "1967": 5361,
            "trip": 5362,
            "Juan": 5363,
            "campus": 5364,
            "provides": 5365,
            "combination": 5366,
            "learned": 5367,
            "massive": 5368,
            "method": 5369,
            "escape": 5370,
            "sculpture": 5371,
            "permanent": 5372,
            "Premier": 5373,
            "Nichol": 5374,
            "Douglas": 5375,
            "54": 5376,
            "Chel": 5377,
            "Jes": 5378,
            "Sat": 5379,
            "fellow": 5380,
            "hired": 5381,
            "ardi": 5382,
            "asser": 5383,
            "routes": 5384,
            "begun": 5385,
            "del": 5386,
            "ria": 5387,
            "antimony": 5388,
            "acted": 5389,
            "Champion": 5390,
            "nothing": 5391,
            "Commit": 5392,
            "ropium": 5393,
            "ification": 5394,
            "USA": 5395,
            "Board": 5396,
            "Columb": 5397,
            "1936": 5398,
            "clubs": 5399,
            "Track": 5400,
            "existing": 5401,
            "existence": 5402,
            "Commander": 5403,
            "pilot": 5404,
            "weakened": 5405,
            "focused": 5406,
            "Development": 5407,
            "Blythe": 5408,
            "Je": 5409,
            "Jain": 5410,
            "Mur": 5411,
            "bark": 5412,
            "cit": 5413,
            "cation": 5414,
            "thesis": 5415,
            "stret": 5416,
            "ressive": 5417,
            "berg": 5418,
            "perhaps": 5419,
            "twel": 5420,
            "forming": 5421,
            "display": 5422,
            "anything": 5423,
            "charges": 5424,
            "Lee": 5425,
            "16th": 5426,
            "Cole": 5427,
            "choice": 5428,
            "developing": 5429,
            "1978": 5430,
            "Marines": 5431,
            "protection": 5432,
            "1952": 5433,
            "drawn": 5434,
            "tells": 5435,
            "painting": 5436,
            "Golden": 5437,
            "susp": 5438,
            "Colonel": 5439,
            "enjoyed": 5440,
            "battleship": 5441,
            "protagon": 5442,
            "Broad": 5443,
            "Crown": 5444,
            "Dubl": 5445,
            "MTV": 5446,
            "TC": 5447,
            "Ten": 5448,
            "cance": 5449,
            "nie": 5450,
            "py": 5451,
            "tall": 5452,
            "editor": 5453,
            "rose": 5454,
            "oldest": 5455,
            "opposition": 5456,
            "neither": 5457,
            "Chart": 5458,
            "news": 5459,
            "visual": 5460,
            "Arm": 5461,
            "anny": 5462,
            "serves": 5463,
            "Sha": 5464,
            "protected": 5465,
            "storyline": 5466,
            "faces": 5467,
            "involvement": 5468,
            "volunte": 5469,
            "Songs": 5470,
            "consisting": 5471,
            "introduction": 5472,
            "surviv": 5473,
            "session": 5474,
            "association": 5475,
            "planning": 5476,
            "Evita": 5477,
            "violence": 5478,
            "Daniel": 5479,
            "reinforce": 5480,
            "regarding": 5481,
            "vehicles": 5482,
            "repeated": 5483,
            "Lieutenant": 5484,
            "widespread": 5485,
            "Colorado": 5486,
            "Dublin": 5487,
            "59": 5488,
            "61": 5489,
            "CD": 5490,
            "Cub": 5491,
            "Domin": 5492,
            "Hy": 5493,
            "Jones": 5494,
            "Mah": 5495,
            "Raf": 5496,
            "aer": 5497,
            "cin": 5498,
            "mble": 5499,
            "āda": 5500,
            "inspir": 5501,
            "neck": 5502,
            "asters": 5503,
            "disc": 5504,
            "myth": 5505,
            "decade": 5506,
            "turning": 5507,
            "Science": 5508,
            "Walter": 5509,
            "colonial": 5510,
            "ategory": 5511,
            "poetry": 5512,
            "administration": 5513,
            "Brian": 5514,
            "digital": 5515,
            "committee": 5516,
            "Office": 5517,
            "faith": 5518,
            "exclus": 5519,
            "athletes": 5520,
            "supplies": 5521,
            "Family": 5522,
            "ánh": 5523,
            "Khánh": 5524,
            "Jurch": 5525,
            "Rome": 5526,
            "Ridge": 5527,
            "bbe": 5528,
            "recover": 5529,
            "recru": 5530,
            "amber": 5531,
            "tery": 5532,
            "convict": 5533,
            "converted": 5534,
            "usal": 5535,
            "comic": 5536,
            "modi": 5537,
            "worship": 5538,
            "evacu": 5539,
            "Attor": 5540,
            "1945": 5541,
            "Bru": 5542,
            "invited": 5543,
            "green": 5544,
            "greatly": 5545,
            "islands": 5546,
            "technique": 5547,
            "motion": 5548,
            "economy": 5549,
            "billion": 5550,
            "chapel": 5551,
            "MacLe": 5552,
            "Belg": 5553,
            "Jamal": 5554,
            "paintings": 5555,
            "Attorney": 5556,
            "250": 5557,
            "Dar": 5558,
            "Hell": 5559,
            "crop": 5560,
            "crossing": 5561,
            "dress": 5562,
            "kin": 5563,
            "rural": 5564,
            "races": 5565,
            "yson": 5566,
            "store": 5567,
            "ager": 5568,
            "intend": 5569,
            "spons": 5570,
            "desc": 5571,
            "ocated": 5572,
            "finishing": 5573,
            "scar": 5574,
            "foundation": 5575,
            "receive": 5576,
            "1979": 5577,
            "1943": 5578,
            "Maria": 5579,
            "rug": 5580,
            "willing": 5581,
            "stones": 5582,
            "commanded": 5583,
            "churches": 5584,
            "Liber": 5585,
            "closely": 5586,
            "About": 5587,
            "details": 5588,
            "archaeological": 5589,
            "issance": 5590,
            "applied": 5591,
            "credited": 5592,
            "1930s": 5593,
            "Tennyson": 5594,
            "chorus": 5595,
            "Sunday": 5596,
            "66": 5597,
            "Age": 5598,
            "Bre": 5599,
            "Master": 5600,
            "cot": 5601,
            "dry": 5602,
            "hur": 5603,
            "rub": 5604,
            "von": 5605,
            "anth": 5606,
            "stal": 5607,
            "aling": 5608,
            "acher": 5609,
            "oms": 5610,
            "Instead": 5611,
            "fix": 5612,
            "weet": 5613,
            "supposed": 5614,
            "locations": 5615,
            "1976": 5616,
            "steam": 5617,
            "missing": 5618,
            "correct": 5619,
            "Liu": 5620,
            "Life": 5621,
            "providing": 5622,
            "Simone": 5623,
            "skin": 5624,
            "technology": 5625,
            "survived": 5626,
            "graded": 5627,
            "chapter": 5628,
            "Malay": 5629,
            "habitat": 5630,
            "opinion": 5631,
            "opportunity": 5632,
            "junction": 5633,
            "Homer": 5634,
            "Ari": 5635,
            "Bor": 5636,
            "Kang": 5637,
            "RE": 5638,
            "fashion": 5639,
            "iation": 5640,
            "knot": 5641,
            "lit": 5642,
            "march": 5643,
            "uct": 5644,
            "wish": 5645,
            "thor": 5646,
            "ancy": 5647,
            "iring": 5648,
            "convin": 5649,
            "plain": 5650,
            "iston": 5651,
            "compon": 5652,
            "renamed": 5653,
            "Alan": 5654,
            "dram": 5655,
            "substant": 5656,
            "authors": 5657,
            "Braz": 5658,
            "concerns": 5659,
            "delivered": 5660,
            "occasionally": 5661,
            "Anthony": 5662,
            "52": 5663,
            "Bishop": 5664,
            "Les": 5665,
            "Sound": 5666,
            "Uly": 5667,
            "Will": 5668,
            "fuel": 5669,
            "sn": 5670,
            "reput": 5671,
            "acre": 5672,
            "accur": 5673,
            "channel": 5674,
            "imb": 5675,
            "1916": 5676,
            "lide": 5677,
            "ighter": 5678,
            "exer": 5679,
            "aked": 5680,
            "Chains": 5681,
            "udd": 5682,
            "Stadium": 5683,
            "uble": 5684,
            "pregn": 5685,
            "speaking": 5686,
            "airport": 5687,
            "drug": 5688,
            "What": 5689,
            "anned": 5690,
            "downtown": 5691,
            "perior": 5692,
            "getting": 5693,
            "towns": 5694,
            "joint": 5695,
            "Perry": 5696,
            "looked": 5697,
            "baseball": 5698,
            "terminus": 5699,
            "assistance": 5700,
            "flights": 5701,
            "depicted": 5702,
            "defined": 5703,
            "Hollywood": 5704,
            "acquired": 5705,
            "Commonwealth": 5706,
            "cruiser": 5707,
            "dissipated": 5708,
            "Shortly": 5709,
            "Committee": 5710,
            "MacLeod": 5711,
            "Ulysses": 5712,
            "Aer": 5713,
            "Fer": 5714,
            "Lin": 5715,
            "OT": 5716,
            "Ru": 5717,
            "Row": 5718,
            "Rod": 5719,
            "caught": 5720,
            "mate": 5721,
            "ole": 5722,
            "sens": 5723,
            "safety": 5724,
            "wins": 5725,
            "stro": 5726,
            "acid": 5727,
            "iled": 5728,
            "ctors": 5729,
            "1900": 5730,
            "1917": 5731,
            "oking": 5732,
            "intersection": 5733,
            "eleven": 5734,
            "appearing": 5735,
            "Moz": 5736,
            "derived": 5737,
            "1982": 5738,
            "transit": 5739,
            "tries": 5740,
            "1953": 5741,
            "1956": 5742,
            "denied": 5743,
            "Point": 5744,
            "glass": 5745,
            "patro": 5746,
            "funding": 5747,
            "Howard": 5748,
            "Military": 5749,
            "controversi": 5750,
            "controversy": 5751,
            "distinct": 5752,
            "symbol": 5753,
            "secure": 5754,
            "Freder": 5755,
            "truth": 5756,
            "Additionally": 5757,
            "85": 5758,
            "Aston": 5759,
            "GN": 5760,
            "Gil": 5761,
            "Ira": 5762,
            "Iguan": 5763,
            "IGN": 5764,
            "Pet": 5765,
            "Test": 5766,
            "Vill": 5767,
            "fal": 5768,
            "page": 5769,
            "table": 5770,
            "atures": 5771,
            "lease": 5772,
            "entially": 5773,
            "amy": 5774,
            "immig": 5775,
            "why": 5776,
            "ulate": 5777,
            "1913": 5778,
            "etic": 5779,
            "shared": 5780,
            "attached": 5781,
            "aug": 5782,
            "eving": 5783,
            "nock": 5784,
            "speech": 5785,
            "cki": 5786,
            "gameplay": 5787,
            "producing": 5788,
            "capac": 5789,
            "Leon": 5790,
            "leads": 5791,
            "1963": 5792,
            "Marsh": 5793,
            "valley": 5794,
            "Charlie": 5795,
            "wooden": 5796,
            "competitions": 5797,
            "destroyers": 5798,
            "separated": 5799,
            "establishment": 5800,
            "watched": 5801,
            "scholars": 5802,
            "succeeded": 5803,
            "Radio": 5804,
            "ceremony": 5805,
            "Iguanodon": 5806,
            "72": 5807,
            "Cari": 5808,
            "Ken": 5809,
            "Oreg": 5810,
            "Pagan": 5811,
            "iqu": 5812,
            "knew": 5813,
            "mere": 5814,
            "thetic": 5815,
            "replace": 5816,
            "enge": 5817,
            "stances": 5818,
            "rout": 5819,
            "leaves": 5820,
            "ilton": 5821,
            "beth": 5822,
            "agle": 5823,
            "apers": 5824,
            "Ind": 5825,
            "astron": 5826,
            "outs": 5827,
            "landed": 5828,
            "preced": 5829,
            "interior": 5830,
            "address": 5831,
            "download": 5832,
            "remainder": 5833,
            "Marl": 5834,
            "priest": 5835,
            "studied": 5836,
            "Simon": 5837,
            "typical": 5838,
            "regularly": 5839,
            "shooting": 5840,
            "achieve": 5841,
            "Jersey": 5842,
            "benef": 5843,
            "Alexander": 5844,
            "Historic": 5845,
            "replacement": 5846,
            "Simpsons": 5847,
            "Fantasy": 5848,
            "Chelsea": 5849,
            "bbean": 5850,
            "Brazil": 5851,
            "Caribbean": 5852,
            "Oregon": 5853,
            "62": 5854,
            "AML": 5855,
            "Dota": 5856,
            "Gar": 5857,
            "Iron": 5858,
            "Jay": 5859,
            "Ode": 5860,
            "U2": 5861,
            "franch": 5862,
            "hall": 5863,
            "ki": 5864,
            "mine": 5865,
            "rates": 5866,
            "ta": 5867,
            "til": 5868,
            "ua": 5869,
            "wise": 5870,
            "wedding": 5871,
            "ía": 5872,
            "univers": 5873,
            "enic": 5874,
            "arranged": 5875,
            "plum": 5876,
            "ateur": 5877,
            "ameter": 5878,
            "fee": 5879,
            "ources": 5880,
            "strateg": 5881,
            "attle": 5882,
            "pty": 5883,
            "spell": 5884,
            "meets": 5885,
            "Anonymous": 5886,
            "ampions": 5887,
            "Albert": 5888,
            "ennon": 5889,
            "evening": 5890,
            "penalty": 5891,
            "politics": 5892,
            "vote": 5893,
            "sky": 5894,
            "certified": 5895,
            "adapted": 5896,
            "experiment": 5897,
            "powers": 5898,
            "portrayed": 5899,
            "innings": 5900,
            "Director": 5901,
            "thousands": 5902,
            "Hornung": 5903,
            "81": 5904,
            "DNA": 5905,
            "ERA": 5906,
            "Mu": 5907,
            "Nat": 5908,
            "Sara": 5909,
            "WA": 5910,
            "Wind": 5911,
            "bone": 5912,
            "tied": 5913,
            "wr": 5914,
            "eda": 5915,
            "repl": 5916,
            "accompl": 5917,
            "iday": 5918,
            "rian": 5919,
            "abour": 5920,
            "liked": 5921,
            "divisions": 5922,
            "shop": 5923,
            "aste": 5924,
            "earch": 5925,
            "dub": 5926,
            "creator": 5927,
            "Rox": 5928,
            "someone": 5929,
            "crime": 5930,
            "Forces": 5931,
            "grapher": 5932,
            "1951": 5933,
            "breaking": 5934,
            "Maeda": 5935,
            "Within": 5936,
            "Romani": 5937,
            "occurs": 5938,
            "Madonna": 5939,
            "honour": 5940,
            "methods": 5941,
            "Patrick": 5942,
            "Transport": 5943,
            "instrument": 5944,
            "Secretary": 5945,
            "happy": 5946,
            "Constantine": 5947,
            "Hibari": 5948,
            "Cardinal": 5949,
            "Summer": 5950,
            "Iraq": 5951,
            "69": 5952,
            "BS": 5953,
            "DA": 5954,
            "Daily": 5955,
            "Dream": 5956,
            "EC": 5957,
            "Qedar": 5958,
            "Wi": 5959,
            "Wall": 5960,
            "dog": 5961,
            "ued": 5962,
            "itan": 5963,
            "entry": 5964,
            "deed": 5965,
            "deck": 5966,
            "constant": 5967,
            "idges": 5968,
            "quite": 5969,
            "affect": 5970,
            "Chief": 5971,
            "spacing": 5972,
            "dismissed": 5973,
            "ansion": 5974,
            "shel": 5975,
            "10th": 5976,
            "survey": 5977,
            "suppor": 5978,
            "1948": 5979,
            "controll": 5980,
            "11th": 5981,
            "Gram": 5982,
            "basic": 5983,
            "entering": 5984,
            "Similar": 5985,
            "glades": 5986,
            "Mountains": 5987,
            "ruli": 5988,
            "rules": 5989,
            "Off": 5990,
            "technical": 5991,
            "Township": 5992,
            "prede": 5993,
            "recognition": 5994,
            "electric": 5995,
            "eyes": 5996,
            "discussed": 5997,
            "satis": 5998,
            "Brien": 5999,
            "biography": 6000,
            "Brook": 6001,
            "Georgian": 6002,
            "dollars": 6003,
            "Critical": 6004,
            "atmosphere": 6005,
            "Columbia": 6006,
            "reputation": 6007,
            "71": 6008,
            "82": 6009,
            "98": 6010,
            "Bern": 6011,
            "Hal": 6012,
            "Rio": 6013,
            "Rangers": 6014,
            "dim": 6015,
            "gone": 6016,
            "iro": 6017,
            "jack": 6018,
            "lings": 6019,
            "nav": 6020,
            "sun": 6021,
            "tip": 6022,
            "vary": 6023,
            "wart": 6024,
            "institut": 6025,
            "edom": 6026,
            "remo": 6027,
            "olis": 6028,
            "1915": 6029,
            "umed": 6030,
            "dies": 6031,
            "noting": 6032,
            "oked": 6033,
            "forests": 6034,
            "regime": 6035,
            "sons": 6036,
            "symp": 6037,
            "charter": 6038,
            "Recording": 6039,
            "offers": 6040,
            "designation": 6041,
            "label": 6042,
            "defended": 6043,
            "solid": 6044,
            "sequences": 6045,
            "facing": 6046,
            "coastal": 6047,
            "crosses": 6048,
            "Starr": 6049,
            "brothers": 6050,
            "teaching": 6051,
            "indicate": 6052,
            "Imperial": 6053,
            "Oslo": 6054,
            "Korean": 6055,
            "Venus": 6056,
            "Haiti": 6057,
            "revolution": 6058,
            "academic": 6059,
            "icipal": 6060,
            "organizations": 6061,
            "Friends": 6062,
            "87": 6063,
            "Around": 6064,
            "Late": 6065,
            "Pers": 6066,
            "Ray": 6067,
            "Rel": 6068,
            "Spring": 6069,
            "VN": 6070,
            "Wy": 6071,
            "gi": 6072,
            "nell": 6073,
            "ont": 6074,
            "sta": 6075,
            "arian": 6076,
            "itled": 6077,
            "hear": 6078,
            "sector": 6079,
            "ads": 6080,
            "ador": 6081,
            "uration": 6082,
            "irt": 6083,
            "ceived": 6084,
            "ried": 6085,
            "apt": 6086,
            "sud": 6087,
            "exact": 6088,
            "expect": 6089,
            "firing": 6090,
            "attributed": 6091,
            "evo": 6092,
            "committed": 6093,
            "phone": 6094,
            "crash": 6095,
            "iful": 6096,
            "describing": 6097,
            "decor": 6098,
            "statement": 6099,
            "tribes": 6100,
            "successor": 6101,
            "characteristics": 6102,
            "sequently": 6103,
            "camps": 6104,
            "generation": 6105,
            "reality": 6106,
            "strip": 6107,
            "references": 6108,
            "Order": 6109,
            "interested": 6110,
            "Islands": 6111,
            "specifically": 6112,
            "secured": 6113,
            "Cambridge": 6114,
            "dynasty": 6115,
            "considerable": 6116,
            "journey": 6117,
            "department": 6118,
            "Archae": 6119,
            "earthquake": 6120,
            "Television": 6121,
            "eighth": 6122,
            "article": 6123,
            "Jeff": 6124,
            "passengers": 6125,
            "Bos": 6126,
            "Fame": 6127,
            "Hon": 6128,
            "Hindu": 6129,
            "NBC": 6130,
            "Person": 6131,
            "Run": 6132,
            "UTC": 6133,
            "ba": 6134,
            "bay": 6135,
            "cab": 6136,
            "jump": 6137,
            "kins": 6138,
            "mut": 6139,
            "pine": 6140,
            "inte": 6141,
            "inity": 6142,
            "ena": 6143,
            "isions": 6144,
            "itage": 6145,
            "oul": 6146,
            "concer": 6147,
            "conference": 6148,
            "agents": 6149,
            "summ": 6150,
            "diameter": 6151,
            "ardo": 6152,
            "ulture": 6153,
            "brand": 6154,
            "surg": 6155,
            "legs": 6156,
            "approved": 6157,
            "appropri": 6158,
            "Stephen": 6159,
            "changing": 6160,
            "everything": 6161,
            "charts": 6162,
            "Montana": 6163,
            "Somal": 6164,
            "crossed": 6165,
            "Morrison": 6166,
            "Maryland": 6167,
            "Gully": 6168,
            "Bradford": 6169,
            "deployed": 6170,
            "Everglades": 6171,
            "safe": 6172,
            "Weekly": 6173,
            "nomination": 6174,
            "pattern": 6175,
            "expedition": 6176,
            "Bell": 6177,
            "Edu": 6178,
            "Low": 6179,
            "Nick": 6180,
            "Sub": 6181,
            "kings": 6182,
            "none": 6183,
            "zone": 6184,
            "inland": 6185,
            "atus": 6186,
            "assemb": 6187,
            "inger": 6188,
            "sects": 6189,
            "1910": 6190,
            "Init": 6191,
            "Chronic": 6192,
            "udes": 6193,
            "untain": 6194,
            "ureau": 6195,
            "noisy": 6196,
            "disci": 6197,
            "izes": 6198,
            "annivers": 6199,
            "hotel": 6200,
            "leadership": 6201,
            "1961": 6202,
            "chemical": 6203,
            "1937": 6204,
            "classes": 6205,
            "medieval": 6206,
            "Holy": 6207,
            "Hotel": 6208,
            "difficulty": 6209,
            "Cape": 6210,
            "Hamilton": 6211,
            "patron": 6212,
            "Depression": 6213,
            "accounts": 6214,
            "responsibility": 6215,
            "rupt": 6216,
            "Samuel": 6217,
            "rhyth": 6218,
            "extremely": 6219,
            "Peninsula": 6220,
            "opponents": 6221,
            "duties": 6222,
            "Rolling": 6223,
            "Admiral": 6224,
            "knots": 6225,
            "Frederick": 6226,
            "capacity": 6227,
            "predecess": 6228,
            "anniversary": 6229,
            "112": 6230,
            "79": 6231,
            "DS": 6232,
            "Jun": 6233,
            "Patt": 6234,
            "Sap": 6235,
            "Your": 6236,
            "fine": 6237,
            "gé": 6238,
            "iers": 6239,
            "jillo": 6240,
            "knock": 6241,
            "oz": 6242,
            "rab": 6243,
            "sight": 6244,
            "inscri": 6245,
            "unusual": 6246,
            "aton": 6247,
            "aced": 6248,
            "forcing": 6249,
            "irs": 6250,
            "igation": 6251,
            "agree": 6252,
            "plane": 6253,
            "moder": 6254,
            "trap": 6255,
            "fear": 6256,
            "acknow": 6257,
            "parties": 6258,
            "prey": 6259,
            "offman": 6260,
            "cript": 6261,
            "erald": 6262,
            "Maya": 6263,
            "distribution": 6264,
            "correspond": 6265,
            "Prime": 6266,
            "basin": 6267,
            "seeing": 6268,
            "novels": 6269,
            "learn": 6270,
            "accused": 6271,
            "alternative": 6272,
            "treaty": 6273,
            "believes": 6274,
            "Research": 6275,
            "reserve": 6276,
            "favorite": 6277,
            "Croatian": 6278,
            "carrying": 6279,
            "ranean": 6280,
            "split": 6281,
            "mobile": 6282,
            "recommended": 6283,
            "neighbor": 6284,
            "Industry": 6285,
            "thirty": 6286,
            "Francisco": 6287,
            "Trujillo": 6288,
            "basketball": 6289,
            "rugby": 6290,
            "Mozamb": 6291,
            "Hard": 6292,
            "Kr": 6293,
            "Mod": 6294,
            "Santa": 6295,
            "Ye": 6296,
            "crown": 6297,
            "ninth": 6298,
            "squad": 6299,
            "vac": 6300,
            "youth": 6301,
            "ining": 6302,
            "infr": 6303,
            "anes": 6304,
            "recovered": 6305,
            "itors": 6306,
            "admitted": 6307,
            "agues": 6308,
            "pled": 6309,
            "plants": 6310,
            "worst": 6311,
            "formal": 6312,
            "partial": 6313,
            "Aniston": 6314,
            "colog": 6315,
            "angerous": 6316,
            "whereas": 6317,
            "followers": 6318,
            "offense": 6319,
            "pointed": 6320,
            "1983": 6321,
            "showing": 6322,
            "completion": 6323,
            "attacking": 6324,
            "xture": 6325,
            "continuing": 6326,
            "sequel": 6327,
            "1954": 6328,
            "attempting": 6329,
            "younger": 6330,
            "approached": 6331,
            "threatened": 6332,
            "blocks": 6333,
            "Hugh": 6334,
            "bringing": 6335,
            "discovery": 6336,
            "documentary": 6337,
            "incorporated": 6338,
            "Rhodesian": 6339,
            "Engineer": 6340,
            "fungus": 6341,
            "Roxas": 6342,
            "sudden": 6343,
            "89": 6344,
            "Gab": 6345,
            "Here": 6346,
            "Kil": 6347,
            "Lennon": 6348,
            "Net": 6349,
            "Snow": 6350,
            "baby": 6351,
            "dock": 6352,
            "jum": 6353,
            "oo": 6354,
            "pushed": 6355,
            "puzz": 6356,
            "theatre": 6357,
            "bels": 6358,
            "terior": 6359,
            "conspir": 6360,
            "apart": 6361,
            "resent": 6362,
            "pete": 6363,
            "soil": 6364,
            "sized": 6365,
            "exception": 6366,
            "intention": 6367,
            "desire": 6368,
            "regional": 6369,
            "Review": 6370,
            "Josh": 6371,
            "rows": 6372,
            "memorial": 6373,
            "courts": 6374,
            "Plot": 6375,
            "1955": 6376,
            "1958": 6377,
            "Stefan": 6378,
            "drawing": 6379,
            "magn": 6380,
            "Miss": 6381,
            "naissance": 6382,
            "surviving": 6383,
            "Nether": 6384,
            "connection": 6385,
            "employe": 6386,
            "ucky": 6387,
            "Activision": 6388,
            "Duke": 6389,
            "shoot": 6390,
            "bella": 6391,
            "Singles": 6392,
            "rarely": 6393,
            "emerged": 6394,
            "Special": 6395,
            "principal": 6396,
            "Isabella": 6397,
            "Lisa": 6398,
            "sufficient": 6399,
            "custom": 6400,
            "survivors": 6401,
            "cinem": 6402,
            "integr": 6403,
            "77": 6404,
            "Cru": 6405,
            "Danny": 6406,
            "Fire": 6407,
            "Flight": 6408,
            "ISB": 6409,
            "Less": 6410,
            "Mul": 6411,
            "Sonic": 6412,
            "Top": 6413,
            "Vol": 6414,
            "Xe": 6415,
            "bond": 6416,
            "sul": 6417,
            "adj": 6418,
            "erected": 6419,
            "trail": 6420,
            "emotional": 6421,
            "ender": 6422,
            "poses": 6423,
            "noon": 6424,
            "Austri": 6425,
            "monarch": 6426,
            "retire": 6427,
            "hore": 6428,
            "operating": 6429,
            "1977": 6430,
            "cycle": 6431,
            "13th": 6432,
            "Plunk": 6433,
            "classical": 6434,
            "Key": 6435,
            "driving": 6436,
            "treated": 6437,
            "motor": 6438,
            "Queens": 6439,
            "painted": 6440,
            "error": 6441,
            "immediate": 6442,
            "calcul": 6443,
            "linked": 6444,
            "demol": 6445,
            "attracted": 6446,
            "rescue": 6447,
            "Calvert": 6448,
            "arrangement": 6449,
            "convection": 6450,
            "parallel": 6451,
            "Eliza": 6452,
            "assumed": 6453,
            "ardian": 6454,
            "controversial": 6455,
            "wrong": 6456,
            "ISBN": 6457,
            "Base": 6458,
            "Pope": 6459,
            "ege": 6460,
            "jazz": 6461,
            "jevo": 6462,
            "ni": 6463,
            "san": 6464,
            "taught": 6465,
            "income": 6466,
            "theat": 6467,
            "orer": 6468,
            "ene": 6469,
            "teacher": 6470,
            "1927": 6471,
            "province": 6472,
            "shots": 6473,
            "itsune": 6474,
            "owner": 6475,
            "Roger": 6476,
            "numbered": 6477,
            "identity": 6478,
            "ensus": 6479,
            "warm": 6480,
            "1949": 6481,
            "signing": 6482,
            "distributed": 6483,
            "reviewer": 6484,
            "communities": 6485,
            "Hospital": 6486,
            "civilian": 6487,
            "Territ": 6488,
            "divine": 6489,
            "picked": 6490,
            "obtained": 6491,
            "turret": 6492,
            "micro": 6493,
            "restaurant": 6494,
            "escort": 6495,
            "Sarajevo": 6496,
            "Modern": 6497,
            "Dom": 6498,
            "Mun": 6499,
            "Yank": 6500,
            "mart": 6501,
            "mally": 6502,
            "math": 6503,
            "wine": 6504,
            "esh": 6505,
            "hem": 6506,
            "veget": 6507,
            "dialo": 6508,
            "manner": 6509,
            "acks": 6510,
            "Story": 6511,
            "auto": 6512,
            "spur": 6513,
            "Anton": 6514,
            "cessive": 6515,
            "indicated": 6516,
            "genre": 6517,
            "Real": 6518,
            "1962": 6519,
            "steel": 6520,
            "frig": 6521,
            "Descri": 6522,
            "Harry": 6523,
            "rapped": 6524,
            "rooms": 6525,
            "poems": 6526,
            "railway": 6527,
            "surrounded": 6528,
            "Strand": 6529,
            "colonies": 6530,
            "ratings": 6531,
            "Castle": 6532,
            "Independent": 6533,
            "Destiny": 6534,
            "victims": 6535,
            "isolated": 6536,
            "expensive": 6537,
            "twelve": 6538,
            "astronom": 6539,
            "franchise": 6540,
            "Yankovic": 6541,
            "Rug": 6542,
            "cise": 6543,
            "hat": 6544,
            "hits": 6545,
            "kā": 6546,
            "pse": 6547,
            "uous": 6548,
            "voted": 6549,
            "intr": 6550,
            "inhabit": 6551,
            "orche": 6552,
            "stor": 6553,
            "stadium": 6554,
            "ione": 6555,
            "agen": 6556,
            "oty": 6557,
            "assess": 6558,
            "ultane": 6559,
            "sche": 6560,
            "Unlike": 6561,
            "indig": 6562,
            "operate": 6563,
            "passage": 6564,
            "Carl": 6565,
            "Carter": 6566,
            "grounds": 6567,
            "defences": 6568,
            "stands": 6569,
            "strongly": 6570,
            "equival": 6571,
            "traveled": 6572,
            "relationships": 6573,
            "existed": 6574,
            "expansion": 6575,
            "Somali": 6576,
            "practices": 6577,
            "Jerusal": 6578,
            "examples": 6579,
            "hoped": 6580,
            "demonstr": 6581,
            "Georgia": 6582,
            "cruisers": 6583,
            "Human": 6584,
            "Adams": 6585,
            "message": 6586,
            "Clarkson": 6587,
            "Argentina": 6588,
            "Writing": 6589,
            "easily": 6590,
            "citiz": 6591,
            "pyram": 6592,
            "institutions": 6593,
            "concerts": 6594,
            "Rugby": 6595,
            "Jerusalem": 6596,
            "Det": 6597,
            "Jere": 6598,
            "Jif": 6599,
            "Mit": 6600,
            "Pul": 6601,
            "Tro": 6602,
            "Tel": 6603,
            "bra": 6604,
            "fold": 6605,
            "hope": 6606,
            "ju": 6607,
            "ost": 6608,
            "ingale": 6609,
            "aded": 6610,
            "cher": 6611,
            "imet": 6612,
            "elder": 6613,
            "commod": 6614,
            "lik": 6615,
            "poly": 6616,
            "eman": 6617,
            "embark": 6618,
            "aws": 6619,
            "fled": 6620,
            "releg": 6621,
            "Lead": 6622,
            "Death": 6623,
            "covering": 6624,
            "carved": 6625,
            "hydro": 6626,
            "Wilde": 6627,
            "falling": 6628,
            "armour": 6629,
            "involving": 6630,
            "posted": 6631,
            "affair": 6632,
            "sessions": 6633,
            "assistant": 6634,
            "engineering": 6635,
            "teeth": 6636,
            "territories": 6637,
            "circum": 6638,
            "ifying": 6639,
            "challenge": 6640,
            "1920s": 6641,
            "candidate": 6642,
            "platform": 6643,
            "Skye": 6644,
            "Ryan": 6645,
            "Jifna": 6646,
            "AR": 6647,
            "Cory": 6648,
            "Federal": 6649,
            "LI": 6650,
            "Mel": 6651,
            "Nintend": 6652,
            "Ré": 6653,
            "Sports": 6654,
            "Tower": 6655,
            "Wild": 6656,
            "brick": 6657,
            "lake": 6658,
            "orter": 6659,
            "stance": 6660,
            "leep": 6661,
            "select": 6662,
            "bearing": 6663,
            "owed": 6664,
            "teor": 6665,
            "uma": 6666,
            "fection": 6667,
            "istry": 6668,
            "pton": 6669,
            "contribut": 6670,
            "somewhat": 6671,
            "ift": 6672,
            "Norman": 6673,
            "helic": 6674,
            "Construction": 6675,
            "Beach": 6676,
            "protests": 6677,
            "standards": 6678,
            "rising": 6679,
            "Germans": 6680,
            "1959": 6681,
            "claiming": 6682,
            "generated": 6683,
            "1935": 6684,
            "limit": 6685,
            "historians": 6686,
            "driven": 6687,
            "suffering": 6688,
            "detail": 6689,
            "seemed": 6690,
            "Prior": 6691,
            "concerned": 6692,
            "printed": 6693,
            "feeling": 6694,
            "literary": 6695,
            "Olympics": 6696,
            "investigation": 6697,
            "absor": 6698,
            "drums": 6699,
            "specimens": 6700,
            "arrested": 6701,
            "thews": 6702,
            "Stanley": 6703,
            "eggs": 6704,
            "Nintendo": 6705,
            "57": 6706,
            "63": 6707,
            "Ko": 6708,
            "Kel": 6709,
            "Kurt": 6710,
            "Rand": 6711,
            "WW": 6712,
            "aud": 6713,
            "fitted": 6714,
            "gor": 6715,
            "wants": 6716,
            "ét": 6717,
            "resemb": 6718,
            "iser": 6719,
            "chronic": 6720,
            "demo": 6721,
            "deem": 6722,
            "resources": 6723,
            "romantic": 6724,
            "superior": 6725,
            "abled": 6726,
            "poser": 6727,
            "siege": 6728,
            "ester": 6729,
            "exchange": 6730,
            "serial": 6731,
            "formally": 6732,
            "intense": 6733,
            "partly": 6734,
            "retained": 6735,
            "15th": 6736,
            "starred": 6737,
            "tribute": 6738,
            "reading": 6739,
            "winner": 6740,
            "promote": 6741,
            "attered": 6742,
            "Clint": 6743,
            "1932": 6744,
            "1938": 6745,
            "effectively": 6746,
            "footage": 6747,
            "laws": 6748,
            "minister": 6749,
            "meetings": 6750,
            "reduce": 6751,
            "hosted": 6752,
            "learning": 6753,
            "languages": 6754,
            "detailed": 6755,
            "stayed": 6756,
            "persist": 6757,
            "purchase": 6758,
            "possession": 6759,
            "europium": 6760,
            "installed": 6761,
            "Journal": 6762,
            "industrial": 6763,
            "agricultural": 6764,
            "submarine": 6765,
            "remnants": 6766,
            "Banai": 6767,
            "Jean": 6768,
            "protagonist": 6769,
            "fixed": 6770,
            "Hung": 6771,
            "OC": 6772,
            "Square": 6773,
            "Yan": 6774,
            "bats": 6775,
            "fant": 6776,
            "faster": 6777,
            "ka": 6778,
            "tone": 6779,
            "tie": 6780,
            "wet": 6781,
            "unsuccessful": 6782,
            "stic": 6783,
            "alph": 6784,
            "arg": 6785,
            "arp": 6786,
            "leuk": 6787,
            "usad": 6788,
            "1929": 6789,
            "plate": 6790,
            "shark": 6791,
            "exit": 6792,
            "lose": 6793,
            "istan": 6794,
            "essential": 6795,
            "overw": 6796,
            "spin": 6797,
            "airline": 6798,
            "cks": 6799,
            "normally": 6800,
            "cars": 6801,
            "storms": 6802,
            "Space": 6803,
            "alien": 6804,
            "barr": 6805,
            "graphics": 6806,
            "equal": 6807,
            "coup": 6808,
            "settled": 6809,
            "moral": 6810,
            "Player": 6811,
            "funds": 6812,
            "closer": 6813,
            "Emperor": 6814,
            "extension": 6815,
            "circulation": 6816,
            "watershed": 6817,
            "debate": 6818,
            "lbw": 6819,
            "wearing": 6820,
            "scientific": 6821,
            "tanks": 6822,
            "Democratic": 6823,
            "vessels": 6824,
            "Burns": 6825,
            "inspiration": 6826,
            "Somalia": 6827,
            "88": 6828,
            "Corn": 6829,
            "Fron": 6830,
            "Goffman": 6831,
            "Kat": 6832,
            "Power": 6833,
            "Sa": 6834,
            "bom": 6835,
            "echo": 6836,
            "gall": 6837,
            "psy": 6838,
            "wich": 6839,
            "ívar": 6840,
            "thin": 6841,
            "incess": 6842,
            "instru": 6843,
            "recalled": 6844,
            "acent": 6845,
            "entitled": 6846,
            "amateur": 6847,
            "implement": 6848,
            "withdrew": 6849,
            "ctr": 6850,
            "aints": 6851,
            "etts": 6852,
            "overseas": 6853,
            "spit": 6854,
            "ockey": 6855,
            "Third": 6856,
            "scape": 6857,
            "flat": 6858,
            "Where": 6859,
            "consult": 6860,
            "lanes": 6861,
            "returns": 6862,
            "musicians": 6863,
            "carbon": 6864,
            "listen": 6865,
            "Hergé": 6866,
            "reviewers": 6867,
            "profit": 6868,
            "iterranean": 6869,
            "1909": 6870,
            "Scientolog": 6871,
            "praise": 6872,
            "Mediterranean": 6873,
            "stationed": 6874,
            "visitors": 6875,
            "perspect": 6876,
            "judge": 6877,
            "Janeiro": 6878,
            "adults": 6879,
            "camera": 6880,
            "specimen": 6881,
            "encouraged": 6882,
            "Bolívar": 6883,
            "segment": 6884,
            "assassination": 6885,
            "Saprang": 6886,
            "Kilmer": 6887,
            "adjacent": 6888,
            "helicop": 6889,
            "93": 6890,
            "Bang": 6891,
            "CC": 6892,
            "Dur": 6893,
            "Every": 6894,
            "Fern": 6895,
            "Kansas": 6896,
            "Kevin": 6897,
            "NS": 6898,
            "Race": 6899,
            "Sav": 6900,
            "Wis": 6901,
            "Wimb": 6902,
            "dess": 6903,
            "soft": 6904,
            "tle": 6905,
            "tailed": 6906,
            "zen": 6907,
            "erog": 6908,
            "ona": 6909,
            "accompany": 6910,
            "enters": 6911,
            "depos": 6912,
            "wid": 6913,
            "1911": 6914,
            "afts": 6915,
            "ritual": 6916,
            "Hearts": 6917,
            "grav": 6918,
            "Rober": 6919,
            "ledon": 6920,
            "covers": 6921,
            "restling": 6922,
            "Islam": 6923,
            "hys": 6924,
            "organised": 6925,
            "grey": 6926,
            "movements": 6927,
            "programme": 6928,
            "BCE": 6929,
            "appointment": 6930,
            "difficulties": 6931,
            "Donald": 6932,
            "occasions": 6933,
            "Lawton": 6934,
            "Lords": 6935,
            "holiday": 6936,
            "Type": 6937,
            "photograph": 6938,
            "carries": 6939,
            "aggressive": 6940,
            "apparently": 6941,
            "preserved": 6942,
            "illustr": 6943,
            "happened": 6944,
            "opposite": 6945,
            "Jesus": 6946,
            "Netherlands": 6947,
            "Clinton": 6948,
            "Wimbledon": 6949,
            "Ele": 6950,
            "Loc": 6951,
            "Labor": 6952,
            "Pine": 6953,
            "Vice": 6954,
            "ez": 6955,
            "hind": 6956,
            "mad": 6957,
            "mature": 6958,
            "ography": 6959,
            "tick": 6960,
            "destruction": 6961,
            "1912": 6962,
            "1921": 6963,
            "elabor": 6964,
            "compounds": 6965,
            "composer": 6966,
            "peare": 6967,
            "estate": 6968,
            "loan": 6969,
            "actual": 6970,
            "Channel": 6971,
            "lowest": 6972,
            "partially": 6973,
            "spaces": 6974,
            "afterwards": 6975,
            "answ": 6976,
            "weigh": 6977,
            "raise": 6978,
            "column": 6979,
            "drink": 6980,
            "medium": 6981,
            "muscar": 6982,
            "Norway": 6983,
            "Shakes": 6984,
            "starling": 6985,
            "ologists": 6986,
            "Gerard": 6987,
            "videos": 6988,
            "lists": 6989,
            "listing": 6990,
            "solution": 6991,
            "Guy": 6992,
            "1931": 6993,
            "kingdom": 6994,
            "classic": 6995,
            "interests": 6996,
            "Palace": 6997,
            "Richardson": 6998,
            "equipped": 6999,
            "Delaware": 7000,
            "Stock": 7001,
            "Formula": 7002,
            "alleged": 7003,
            "behaviour": 7004,
            "resistance": 7005,
            "reconnaissance": 7006,
            "modified": 7007,
            "Elizabeth": 7008,
            "equivalent": 7009,
            "leukem": 7010,
            "Shakespeare": 7011,
            "58": 7012,
            "DC": 7013,
            "Die": 7014,
            "Jos": 7015,
            "Komb": 7016,
            "Owen": 7017,
            "Wolf": 7018,
            "bits": 7019,
            "haust": 7020,
            "mud": 7021,
            "ocean": 7022,
            "sam": 7023,
            "va": 7024,
            "zac": 7025,
            "insist": 7026,
            "inaug": 7027,
            "online": 7028,
            "remin": 7029,
            "renew": 7030,
            "rebels": 7031,
            "ati": 7032,
            "anda": 7033,
            "lets": 7034,
            "amond": 7035,
            "beam": 7036,
            "terbury": 7037,
            "ider": 7038,
            "absol": 7039,
            "abilities": 7040,
            "trained": 7041,
            "exhaust": 7042,
            "owners": 7043,
            "grave": 7044,
            "guil": 7045,
            "temples": 7046,
            "anyon": 7047,
            "angular": 7048,
            "product": 7049,
            "products": 7050,
            "enses": 7051,
            "restored": 7052,
            "towers": 7053,
            "Wilson": 7054,
            "Canterbury": 7055,
            "vention": 7056,
            "humor": 7057,
            "armor": 7058,
            "factory": 7059,
            "victories": 7060,
            "Poland": 7061,
            "Atlanta": 7062,
            "Corpor": 7063,
            "Keamy": 7064,
            "defeating": 7065,
            "measures": 7066,
            "injuries": 7067,
            "Republican": 7068,
            "objects": 7069,
            "panel": 7070,
            "Justice": 7071,
            "atoon": 7072,
            "absence": 7073,
            "Classic": 7074,
            "elsewhere": 7075,
            "Palestine": 7076,
            "rendered": 7077,
            "Stevens": 7078,
            "Mortal": 7079,
            "preferred": 7080,
            "Kombat": 7081,
            "AP": 7082,
            "Bureau": 7083,
            "Cad": 7084,
            "Fras": 7085,
            "Jenn": 7086,
            "OK": 7087,
            "Pi": 7088,
            "Sweet": 7089,
            "Tig": 7090,
            "Treat": 7091,
            "cli": 7092,
            "cash": 7093,
            "mast": 7094,
            "yo": 7095,
            "thosaurus": 7096,
            "anz": 7097,
            "remark": 7098,
            "accommod": 7099,
            "impossible": 7100,
            "ows": 7101,
            "idd": 7102,
            "util": 7103,
            "prohib": 7104,
            "trust": 7105,
            "astru": 7106,
            "creek": 7107,
            "ivity": 7108,
            "afternoon": 7109,
            "displays": 7110,
            "Along": 7111,
            "understanding": 7112,
            "charged": 7113,
            "annually": 7114,
            "offs": 7115,
            "Johnston": 7116,
            "transition": 7117,
            "ifications": 7118,
            "legend": 7119,
            "atherine": 7120,
            "aska": 7121,
            "asks": 7122,
            "bands": 7123,
            "Mega": 7124,
            "Geoff": 7125,
            "refers": 7126,
            "Barbar": 7127,
            "Design": 7128,
            "criticised": 7129,
            "representing": 7130,
            "borne": 7131,
            "needs": 7132,
            "reveals": 7133,
            "Arabic": 7134,
            "Victorian": 7135,
            "joining": 7136,
            "hundreds": 7137,
            "initiative": 7138,
            "legislation": 7139,
            "intensified": 7140,
            "texts": 7141,
            "criminal": 7142,
            "Cambodia": 7143,
            "global": 7144,
            "Plunketts": 7145,
            "dialogue": 7146,
            "kān": 7147,
            "Corythosaurus": 7148,
            "Front": 7149,
            "Fraser": 7150,
            "astruct": 7151,
            "Bron": 7152,
            "Dark": 7153,
            "Free": 7154,
            "Fair": 7155,
            "Found": 7156,
            "Stop": 7157,
            "card": 7158,
            "horn": 7159,
            "pure": 7160,
            "ske": 7161,
            "wel": 7162,
            "atom": 7163,
            "ensure": 7164,
            "stap": 7165,
            "illy": 7166,
            "ammun": 7167,
            "impression": 7168,
            "impressed": 7169,
            "consum": 7170,
            "uscript": 7171,
            "apy": 7172,
            "comments": 7173,
            "express": 7174,
            "merch": 7175,
            "interpret": 7176,
            "bright": 7177,
            "monuments": 7178,
            "understand": 7179,
            "oba": 7180,
            "surpr": 7181,
            "parish": 7182,
            "ificial": 7183,
            "tribut": 7184,
            "Christop": 7185,
            "Guardian": 7186,
            "1957": 7187,
            "Allah": 7188,
            "tests": 7189,
            "streak": 7190,
            "influences": 7191,
            "netic": 7192,
            "traits": 7193,
            "burned": 7194,
            "ullen": 7195,
            "audio": 7196,
            "narrative": 7197,
            "watching": 7198,
            "documents": 7199,
            "Lawrence": 7200,
            "pitcher": 7201,
            "FIA": 7202,
            "observations": 7203,
            "shells": 7204,
            "huge": 7205,
            "Phoen": 7206,
            "iques": 7207,
            "Marlborough": 7208,
            "Grammy": 7209,
            "acknowled": 7210,
            "erogative": 7211,
            "ammunition": 7212,
            "Pass": 7213,
            "Sm": 7214,
            "Wright": 7215,
            "dal": 7216,
            "gate": 7217,
            "hot": 7218,
            "kitsune": 7219,
            "sung": 7220,
            "uff": 7221,
            "yn": 7222,
            "ensu": 7223,
            "stell": 7224,
            "sees": 7225,
            "selection": 7226,
            "agas": 7227,
            "resumed": 7228,
            "moon": 7229,
            "provin": 7230,
            "sher": 7231,
            "expo": 7232,
            "feather": 7233,
            "essay": 7234,
            "ignment": 7235,
            "Anzac": 7236,
            "internal": 7237,
            "angle": 7238,
            "writings": 7239,
            "annah": 7240,
            "engage": 7241,
            "engines": 7242,
            "memory": 7243,
            "restoration": 7244,
            "simultane": 7245,
            "Fei": 7246,
            "azing": 7247,
            "Management": 7248,
            "trading": 7249,
            "communication": 7250,
            "Organ": 7251,
            "streets": 7252,
            "Harrison": 7253,
            "purposes": 7254,
            "Berlin": 7255,
            "Palmy": 7256,
            "Express": 7257,
            "Mexican": 7258,
            "belt": 7259,
            "Media": 7260,
            "materials": 7261,
            "moments": 7262,
            "throwing": 7263,
            "defenders": 7264,
            "molec": 7265,
            "windows": 7266,
            "journalist": 7267,
            "doubt": 7268,
            "proposal": 7269,
            "Indones": 7270,
            "overwhel": 7271,
            "CO": 7272,
            "Cop": 7273,
            "Ell": 7274,
            "Gary": 7275,
            "Garc": 7276,
            "Naval": 7277,
            "Our": 7278,
            "RNA": 7279,
            "Sand": 7280,
            "Sher": 7281,
            "cry": 7282,
            "uit": 7283,
            "relie": 7284,
            "atops": 7285,
            "stall": 7286,
            "sters": 7287,
            "arte": 7288,
            "toll": 7289,
            "heavi": 7290,
            "wasn": 7291,
            "degre": 7292,
            "olay": 7293,
            "imprison": 7294,
            "cong": 7295,
            "comed": 7296,
            "lium": 7297,
            "feed": 7298,
            "iance": 7299,
            "crest": 7300,
            "iven": 7301,
            "amps": 7302,
            "phr": 7303,
            "genetic": 7304,
            "helmet": 7305,
            "useful": 7306,
            "consol": 7307,
            "considers": 7308,
            "counties": 7309,
            "periods": 7310,
            "extent": 7311,
            "voiced": 7312,
            "Earl": 7313,
            "styles": 7314,
            "influential": 7315,
            "telling": 7316,
            "municipal": 7317,
            "villages": 7318,
            "garrison": 7319,
            "engineers": 7320,
            "injured": 7321,
            "instance": 7322,
            "transportation": 7323,
            "altern": 7324,
            "establishing": 7325,
            "goddess": 7326,
            "itzer": 7327,
            "Enterprise": 7328,
            "badly": 7329,
            "Pitman": 7330,
            "picture": 7331,
            "Athletic": 7332,
            "dramatic": 7333,
            "appropriate": 7334,
            "Stefani": 7335,
            "batsman": 7336,
            "guilty": 7337,
            "García": 7338,
            "degrees": 7339,
            "Bed": 7340,
            "Ball": 7341,
            "Bark": 7342,
            "CP": 7343,
            "CBS": 7344,
            "Hob": 7345,
            "Jud": 7346,
            "Main": 7347,
            "Now": 7348,
            "Pict": 7349,
            "SS": 7350,
            "Ut": 7351,
            "Wat": 7352,
            "blow": 7353,
            "cold": 7354,
            "eper": 7355,
            "nut": 7356,
            "sunk": 7357,
            "sale": 7358,
            "ths": 7359,
            "rell": 7360,
            "reconstruction": 7361,
            "remember": 7362,
            "represents": 7363,
            "ori": 7364,
            "orbit": 7365,
            "encing": 7366,
            "heat": 7367,
            "ilst": 7368,
            "ches": 7369,
            "context": 7370,
            "elli": 7371,
            "option": 7372,
            "abund": 7373,
            "diag": 7374,
            "clock": 7375,
            "exposed": 7376,
            "manuscript": 7377,
            "outbreak": 7378,
            "earning": 7379,
            "twin": 7380,
            "Chan": 7381,
            "Anti": 7382,
            "brig": 7383,
            "Alf": 7384,
            "retreat": 7385,
            "Joy": 7386,
            "elev": 7387,
            "venues": 7388,
            "Moore": 7389,
            "1940s": 7390,
            "designs": 7391,
            "musician": 7392,
[...]
